{
  "version": "1.0",
  "truncation": null,
  "padding": null,
  "added_tokens": [
    {
      "id": 0,
      "content": "[PAD]",
      "single_word": false,
      "lstrip": false,
      "rstrip": false,
      "normalized": false,
      "special": true
    },
    {
      "id": 1,
      "content": "[UNK]",
      "single_word": false,
      "lstrip": false,
      "rstrip": false,
      "normalized": false,
      "special": true
    },
    {
      "id": 2,
      "content": "[CLS]",
      "single_word": false,
      "lstrip": false,
      "rstrip": false,
      "normalized": false,
      "special": true
    },
    {
      "id": 3,
      "content": "[SEP]",
      "single_word": false,
      "lstrip": false,
      "rstrip": false,
      "normalized": false,
      "special": true
    },
    {
      "id": 4,
      "content": "[MASK]",
      "single_word": false,
      "lstrip": false,
      "rstrip": false,
      "normalized": false,
      "special": true
    },
    {
      "id": 5,
      "content": "<hiero>",
      "single_word": false,
      "lstrip": false,
      "rstrip": false,
      "normalized": false,
      "special": true
    },
    {
      "id": 6,
      "content": "<dem>",
      "single_word": false,
      "lstrip": false,
      "rstrip": false,
      "normalized": false,
      "special": true
    },
    {
      "id": 7,
      "content": "<boh>",
      "single_word": false,
      "lstrip": false,
      "rstrip": false,
      "normalized": false,
      "special": true
    },
    {
      "id": 8,
      "content": "<sah>",
      "single_word": false,
      "lstrip": false,
      "rstrip": false,
      "normalized": false,
      "special": true
    },
    {
      "id": 9,
      "content": "<eng>",
      "single_word": false,
      "lstrip": false,
      "rstrip": false,
      "normalized": false,
      "special": true
    },
    {
      "id": 10,
      "content": "[gap]",
      "single_word": false,
      "lstrip": false,
      "rstrip": false,
      "normalized": false,
      "special": true
    }
  ],
  "normalizer": {
    "type": "NFKC"
  },
  "pre_tokenizer": {
    "type": "ByteLevel",
    "add_prefix_space": false,
    "trim_offsets": true,
    "use_regex": true
  },
  "post_processor": null,
  "decoder": {
    "type": "ByteLevel",
    "add_prefix_space": true,
    "trim_offsets": true,
    "use_regex": true
  },
  "model": {
    "type": "BPE",
    "dropout": null,
    "unk_token": "[UNK]",
    "continuing_subword_prefix": null,
    "end_of_word_suffix": null,
    "fuse_unk": false,
    "byte_fallback": false,
    "ignore_merges": false,
    "vocab": {
      "[PAD]": 0,
      "[UNK]": 1,
      "[CLS]": 2,
      "[SEP]": 3,
      "[MASK]": 4,
      "<hiero>": 5,
      "<dem>": 6,
      "<boh>": 7,
      "<sah>": 8,
      "<eng>": 9,
      "[gap]": 10,
      "!": 11,
      "\"": 12,
      "#": 13,
      "%": 14,
      "&": 15,
      "'": 16,
      "(": 17,
      ")": 18,
      "*": 19,
      "+": 20,
      ",": 21,
      "-": 22,
      ".": 23,
      "/": 24,
      "0": 25,
      "1": 26,
      "2": 27,
      "3": 28,
      "4": 29,
      "5": 30,
      "6": 31,
      "7": 32,
      "8": 33,
      "9": 34,
      ":": 35,
      ";": 36,
      "<": 37,
      "=": 38,
      ">": 39,
      "?": 40,
      "A": 41,
      "B": 42,
      "C": 43,
      "D": 44,
      "E": 45,
      "F": 46,
      "G": 47,
      "H": 48,
      "I": 49,
      "J": 50,
      "K": 51,
      "L": 52,
      "M": 53,
      "N": 54,
      "O": 55,
      "P": 56,
      "Q": 57,
      "R": 58,
      "S": 59,
      "T": 60,
      "U": 61,
      "V": 62,
      "W": 63,
      "X": 64,
      "Y": 65,
      "Z": 66,
      "[": 67,
      "\\": 68,
      "]": 69,
      "^": 70,
      "_": 71,
      "`": 72,
      "a": 73,
      "b": 74,
      "c": 75,
      "d": 76,
      "e": 77,
      "f": 78,
      "g": 79,
      "h": 80,
      "i": 81,
      "j": 82,
      "k": 83,
      "l": 84,
      "m": 85,
      "n": 86,
      "o": 87,
      "p": 88,
      "q": 89,
      "r": 90,
      "s": 91,
      "t": 92,
      "u": 93,
      "v": 94,
      "w": 95,
      "x": 96,
      "y": 97,
      "z": 98,
      "{": 99,
      "|": 100,
      "}": 101,
      "~": 102,
      "¡": 103,
      "¢": 104,
      "£": 105,
      "¤": 106,
      "¥": 107,
      "¦": 108,
      "§": 109,
      "¨": 110,
      "©": 111,
      "ª": 112,
      "«": 113,
      "¬": 114,
      "®": 115,
      "¯": 116,
      "°": 117,
      "±": 118,
      "²": 119,
      "³": 120,
      "´": 121,
      "µ": 122,
      "¶": 123,
      "·": 124,
      "¸": 125,
      "¹": 126,
      "º": 127,
      "»": 128,
      "¼": 129,
      "½": 130,
      "¾": 131,
      "¿": 132,
      "Â": 133,
      "Ã": 134,
      "Ä": 135,
      "Å": 136,
      "Ê": 137,
      "Ì": 138,
      "Í": 139,
      "Î": 140,
      "Ï": 141,
      "×": 142,
      "á": 143,
      "â": 144,
      "ã": 145,
      "ä": 146,
      "å": 147,
      "æ": 148,
      "ç": 149,
      "ê": 150,
      "ð": 151,
      "Ċ": 152,
      "č": 153,
      "Ġ": 154,
      "Ģ": 155,
      "ģ": 156,
      "Ĥ": 157,
      "ĥ": 158,
      "Ħ": 159,
      "ħ": 160,
      "Ĩ": 161,
      "ĩ": 162,
      "Ī": 163,
      "ī": 164,
      "Ĭ": 165,
      "ĭ": 166,
      "Į": 167,
      "į": 168,
      "İ": 169,
      "ı": 170,
      "Ĳ": 171,
      "ĳ": 172,
      "Ĵ": 173,
      "ĵ": 174,
      "Ķ": 175,
      "ķ": 176,
      "ĸ": 177,
      "Ĺ": 178,
      "ĺ": 179,
      "Ļ": 180,
      "ļ": 181,
      "Ľ": 182,
      "ľ": 183,
      "Ŀ": 184,
      "ŀ": 185,
      "Ł": 186,
      "ł": 187,
      "Ń": 188,
      "â²": 189,
      "Ġâ²": 190,
      "Ġt": 191,
      "he": 192,
      "êľ": 193,
      "á¸": 194,
      "êŀ": 195,
      "êŀ½": 196,
      "â²ī": 197,
      "Ġthe": 198,
      "Łâ²": 199,
      "ĠÏ": 200,
      "êľ£": 201,
      "Ġo": 202,
      "Ġa": 203,
      "Ġs": 204,
      "Ġw": 205,
      "â²ģ": 206,
      "Ġn": 207,
      "Ġâ²Ľ": 208,
      "Ġâ": 209,
      "Ġm": 210,
      "¸Ĺ": 211,
      "in": 212,
      "Ġâ¸Ĺ": 213,
      "â²ĵ": 214,
      "Ġof": 215,
      "â²Łâ²": 216,
      "á¸¥": 217,
      "re": 218,
      "is": 219,
      "nd": 220,
      "Ġâ²ī": 221,
      "â²Ľ": 222,
      "Ġp": 223,
      "er": 224,
      "ou": 225,
      "Ġb": 226,
      "Ġh": 227,
      "â²§": 228,
      "êľ¥": 229,
      "or": 230,
      "at": 231,
      "Ġêŀ½": 232,
      "Ġâ²¡": 233,
      "Ġf": 234,
      "â²±": 235,
      "es": 236,
      "â²£": 237,
      "á¸«": 238,
      "..": 239,
      "Ġâ²Ļ": 240,
      "it": 241,
      "on": 242,
      "Łâ²©": 243,
      "Ġr": 244,
      "â²ı": 245,
      "en": 246,
      "â²Ļ": 247,
      "á¸ı": 248,
      "ll": 249,
      "Ġand": 250,
      "Ġâ²Łâ²©": 251,
      "Ġd": 252,
      "Ġth": 253,
      "Ġc": 254,
      "Ġá¸¥": 255,
      "Ġâ²ģ": 256,
      "Ġto": 257,
      "ing": 258,
      "--": 259,
      "â²Ł": 260,
      "Ġ(": 261,
      "ed": 262,
      "Ġin": 263,
      "Ġg": 264,
      "Ġâ²§": 265,
      "ĠÏ©": 266,
      "Ġy": 267,
      "Ì¯": 268,
      "ar": 269,
      "Ï©": 270,
      "â²¥": 271,
      "ĠÏ¥": 272,
      "ga": 273,
      "á¹": 274,
      "Ġyou": 275,
      "Ġhe": 276,
      "â²Łâ²©": 277,
      "Ġâ²¥": 278,
      "Ġwh": 279,
      "Ġl": 280,
      "an": 281,
      "as": 282,
      "gap": 283,
      "Ġbe": 284,
      "â²©": 285,
      "á¹¯": 286,
      "ri": 287,
      "om": 288,
      "Ġ.": 289,
      "Å¡": 290,
      "â²ĥ": 291,
      "...": 292,
      "Ġis": 293,
      "ĠÏ«": 294,
      "ot": 295,
      "ay": 296,
      "se": 297,
      "Ġ[": 298,
      "od": 299,
      "Ġe": 300,
      "ĠÏ£": 301,
      "im": 302,
      "Ï«": 303,
      "â²īâ²Ľ": 304,
      "----": 305,
      "ve": 306,
      "ce": 307,
      "â²¡": 308,
      "et": 309,
      "Ġêľ¥": 310,
      "Ġâ²Ľâ²ģ": 311,
      "al": 312,
      "Ġhis": 313,
      "Ġâ²ķ": 314,
      "ad": 315,
      "ir": 316,
      "Ġon": 317,
      "têŀ½": 318,
      "Ġá¸¥r": 319,
      "ch": 320,
      "Ġfor": 321,
      "The": 322,
      "â²Ĺ": 323,
      "ĠI": 324,
      "Ġ...": 325,
      "ut": 326,
      "ow": 327,
      "ith": 328,
      "le": 329,
      "â²§â²ī": 330,
      "Ġwho": 331,
      "Ġá¸«": 332,
      "and": 333,
      "Ġk": 334,
      "Ġpêľ£": 335,
      "ord": 336,
      "Ġthat": 337,
      "Ġâ²¡â²ī": 338,
      "â²ķ": 339,
      "st": 340,
      "Ġsh": 341,
      "ºĸ": 342,
      "áºĸ": 343,
      "all": 344,
      "wt": 345,
      "Ġá¸ı": 346,
      "gh": 347,
      "Ġwith": 348,
      "Ġâ²ĵ": 349,
      "ver": 350,
      "Ġâ²Ľâ²ī": 351,
      "Ġ1": 352,
      "am": 353,
      "Ġu": 354,
      "ill": 355,
      "th": 356,
      "id": 357,
      "Ġnb": 358,
      "Ï£": 359,
      "her": 360,
      "ion": 361,
      "á¹¯r": 362,
      "Ì¯.": 363,
      "Ġit": 364,
      "ĠL": 365,
      "ĠG": 366,
      "ent": 367,
      "ld": 368,
      "Ġre": 369,
      "Ġhim": 370,
      "Ï¥": 371,
      "est": 372,
      "Ġâ²©": 373,
      "â²Łâ²Ĺ": 374,
      "Ġpr": 375,
      "Ġêŀ½m": 376,
      "Ġâ²£": 377,
      "ak": 378,
      "Ġâ²īâ²§": 379,
      "?)": 380,
      "â²ŁÏ©": 381,
      "ĠH": 382,
      "â²Łâ²¥": 383,
      "ght": 384,
      "Ġyour": 385,
      "Ġwill": 386,
      "ĠÅ¡": 387,
      "nt": 388,
      "ĠA": 389,
      "if": 390,
      "Ġfr": 391,
      "Ġsa": 392,
      "ĠÏ«â²ī": 393,
      "â²£â²ī": 394,
      "Ġme": 395,
      "Ġst": 396,
      "--------": 397,
      "ĠS": 398,
      "Ġnot": 399,
      "Ġêŀ½r": 400,
      "â²ĥâ²Łâ²Ĺ": 401,
      "us": 402,
      "il": 403,
      "â²ģâ²ĵ": 404,
      "ĠLord": 405,
      "êŀ½r": 406,
      "êŀ½w": 407,
      "ĠP": 408,
      "ave": 409,
      "Ġshall": 410,
      "ná¸«": 411,
      "Ġâ²īâ²ĥâ²Łâ²Ĺ": 412,
      "sn": 413,
      "Ê¾": 414,
      "Ġas": 415,
      "Ġtêľ£": 416,
      "Ġmy": 417,
      "Ġêŀ½w": 418,
      "reat": 419,
      "ec": 420,
      "ĠGod": 421,
      "Ġfrom": 422,
      "â²©â²±": 423,
      "Ġz": 424,
      "iv": 425,
      "Ġâ²Ļâ²Ļ": 426,
      "â²ĳ": 427,
      "ĠN": 428,
      "ore": 429,
      "â²īâ²ĵ": 430,
      "Ġcom": 431,
      "em": 432,
      "ĠÏ§": 433,
      "â²ģâ²Ľ": 434,
      "Ġâ²īâ²£": 435,
      "And": 436,
      "ĠÏ¯": 437,
      "op": 438,
      "ĠM": 439,
      "tw": 440,
      "Ġthem": 441,
      "Ġwhi": 442,
      "Ġare": 443,
      "ĠÏŃ": 444,
      "Ï«â²ī": 445,
      "Ġáºĸ": 446,
      "pr": 447,
      "Ġâ²ĩ": 448,
      "Ġâ²«": 449,
      "Ġâ²Ľâ²ĵ": 450,
      "ame": 451,
      "fr": 452,
      "êľ¥w": 453,
      "ter": 454,
      "ĠâĢ": 455,
      "ep": 456,
      "Ġby": 457,
      "au": 458,
      "Ġall": 459,
      "Ġâ²Łâ²©â²ŁÏ©": 460,
      "Ġâ²¡â²ĵ": 461,
      "Ġwhich": 462,
      "á¸¥r": 463,
      "Ġ2": 464,
      "â²ıâ²£": 465,
      "â²Łâ²Ľ": 466,
      "ur": 467,
      "Ġhas": 468,
      "Ġthey": 469,
      "Ġêľ£": 470,
      "el": 471,
      "ess": 472,
      "Ġâ²§â²ī": 473,
      "Ï¯": 474,
      "Ġan": 475,
      "Ġhave": 476,
      "ĠâĢ¢": 477,
      "ight": 478,
      "rw": 479,
      "'s": 480,
      "ant": 481,
      "ul": 482,
      "ná¹¯r": 483,
      "â²ģâ²£": 484,
      "Ġwas": 485,
      "Ġthis": 486,
      "Ġson": 487,
      "Ġná¹¯r": 488,
      "Ġone": 489,
      "â¸Ĺ": 490,
      "Ġsp": 491,
      "pt": 492,
      "ef": 493,
      "tp": 494,
      "Ġâ²ģâ²©â²±": 495,
      "ic": 496,
      "ĠÏ§â²īâ²Ľ": 497,
      "wêŀ½": 498,
      "Ġâ²Ľâ²§â²ī": 499,
      "ĠO": 500,
      "Ġwe": 501,
      "ly": 502,
      "Ġ(?)": 503,
      "ive": 504,
      "ace": 505,
      "our": 506,
      "ac": 507,
      "ĠÏ©â²ĵ": 508,
      "Ġsw": 509,
      "Ġgo": 510,
      "ĠT": 511,
      "Ġthou": 512,
      "Ġse": 513,
      "Ġtw": 514,
      "Re": 515,
      "Ġnêľ£": 516,
      "pp": 517,
      "Ġwr": 518,
      "ns": 519,
      "Ġâ²ĩâ²ī": 520,
      "êŀ½m": 521,
      "Ġtheir": 522,
      "Ġking": 523,
      "êľ£êľ¥": 524,
      "Ġpl": 525,
      "ist": 526,
      "Ġup": 527,
      "â²ģÏ©": 528,
      "os": 529,
      "hen": 530,
      "Ġgreat": 531,
      "Ġq": 532,
      "Ġâ²Ļâ²Ľ": 533,
      "â²Łâ²Łâ²©": 534,
      "ake": 535,
      "res": 536,
      "Ġat": 537,
      "ty": 538,
      "ĠE": 539,
      "un": 540,
      "Ġch": 541,
      "ab": 542,
      "Ġout": 543,
      "á¹±": 544,
      "Ġâ²Ľâ²īâ²Ļ": 545,
      "red": 546,
      "â²¡â²ī": 547,
      "Ġêŀ½n": 548,
      "),": 549,
      "art": 550,
      "Ġpri": 551,
      "ers": 552,
      "very": 553,
      "Ġêľ¥ná¸«": 554,
      "Ġâ²Ļâ²Ļâ²Ł": 555,
      "ĠÏ£â²±": 556,
      "ation": 557,
      "He": 558,
      "Ġman": 559,
      "â²ıâ²§": 560,
      "â²Łâ²īâ²ĵ": 561,
      "ven": 562,
      "Ġher": 563,
      "Ġbr": 564,
      "ĠC": 565,
      "----------------": 566,
      "Ġâ²Ľâ²Łâ²©": 567,
      "ice": 568,
      "ÏŃ": 569,
      "â²ģâ²§": 570,
      "ĠÏ©â²Ľ": 571,
      "Ġâ²ģâ²Ľ": 572,
      "Ġsay": 573,
      "iris": 574,
      "êľ¥êľ£": 575,
      "ear": 576,
      "nb": 577,
      "â²Ľâ²ī": 578,
      "Ġdo": 579,
      "Ġâ²§â²ģ": 580,
      "Ġá¸¥m": 581,
      "Ġday": 582,
      "ose": 583,
      "ain": 584,
      "Ġsaid": 585,
      "á¸ıd": 586,
      "ok": 587,
      "Ġâ²ĥ": 588,
      "Ġgod": 589,
      "other": 590,
      "Ġá¹¯": 591,
      "Ġj": 592,
      "one": 593,
      "â²Łâ²Ļ": 594,
      "nn": 595,
      "â²±â²Ľ": 596,
      "cri": 597,
      "to": 598,
      "á¸ıi": 599,
      "ast": 600,
      "â²±â²Ļ": 601,
      "um": 602,
      "Ġâ²īâ²ĵ": 603,
      "rêľ¥w": 604,
      "sr": 605,
      "siris": 606,
      "ol": 607,
      "êľ£b": 608,
      "ĠB": 609,
      "ong": 610,
      "ĠK": 611,
      "têľ£": 612,
      "ag": 613,
      "ect": 614,
      "êŀ½n": 615,
      "â²±â²§": 616,
      "Ġá¸ıd": 617,
      "ings": 618,
      "the": 619,
      "Ġâ²īÏ©": 620,
      "nw": 621,
      "â²ģâ²©": 622,
      "Ġáºĸr": 623,
      "Ġ'": 624,
      "fore": 625,
      "Ġnfr": 626,
      "kêľ£": 627,
      "ard": 628,
      "ĠÏ£â²ģ": 629,
      "â²ĵâ²¥": 630,
      "ather": 631,
      "á¸ıêľ£": 632,
      "â²ıâ²¥": 633,
      "Ġêŀ½ri": 634,
      "Ġevery": 635,
      "Ġv": 636,
      "â²ĩ": 637,
      "Ġgiv": 638,
      ").": 639,
      "sel": 640,
      "rÊ¾": 641,
      "â²Łâ²§": 642,
      "Ġá¸¥n": 643,
      "ĠRe": 644,
      "Ġthy": 645,
      "ine": 646,
      "orus": 647,
      "ĠJ": 648,
      "Ġar": 649,
      "â²±â²Łâ²©": 650,
      "bêľ£": 651,
      "Ġâ²Ń": 652,
      "Ġgr": 653,
      "Ġâ²ĽÏ«â²ī": 654,
      "Ġ\"": 655,
      "Ġâ²ĳ": 656,
      "â²ģâ²Ĺ": 657,
      "Ġsm": 658,
      "ig": 659,
      "Ġde": 660,
      "ife": 661,
      "Ï§": 662,
      "sêŀ½r": 663,
      "dw": 664,
      "Ġab": 665,
      "ĠD": 666,
      "Ġthere": 667,
      "ound": 668,
      "Ġâ²§â²ıâ²£": 669,
      "Ġâ²īâ²£â²Ł": 670,
      "Ġá¸¥êľ£": 671,
      "Ġwêľ¥": 672,
      "Ġcome": 673,
      "Ġam": 674,
      "You": 675,
      "Ġâ²Ļâ²ģ": 676,
      "ath": 677,
      "out": 678,
      "(?)": 679,
      "ower": 680,
      "ies": 681,
      "Ġlo": 682,
      "Ġâ²ħ": 683,
      "â²Ń": 684,
      "gain": 685,
      "â²ħ": 686,
      "ause": 687,
      "Ġzêľ£": 688,
      "Ġmêľ£êľ¥": 689,
      "ĠOsiris": 690,
      "Ġpêľ£y": 691,
      "â²Łâ²©â²ŁÏ©": 692,
      "â²Łâ²īâ²ĵâ²¥": 693,
      "ouse": 694,
      "Ġsêľ£": 695,
      "gy": 696,
      "ity": 697,
      "tn": 698,
      "Ġpriest": 699,
      "Ġâ²Ļâ²ī": 700,
      "Ġtwo": 701,
      "ren": 702,
      "Ġbec": 703,
      "Ġnty": 704,
      "Ġâ²Ľâ²§": 705,
      "Ġmr": 706,
      "â²¡â²ĵ": 707,
      "Ġkn": 708,
      "Ġname": 709,
      "are": 710,
      "wn": 711,
      "Ġagain": 712,
      "â²ĵâ²ģ": 713,
      "gypt": 714,
      "ho": 715,
      "Ġso": 716,
      "Ġgods": 717,
      "ĠÏ©â²Ļ": 718,
      "Ġrn": 719,
      "Ġwhen": 720,
      "Ġâ²īÏ«": 721,
      "ĠW": 722,
      "read": 723,
      "Ġsacri": 724,
      "Ġsacrif": 725,
      "Ġor": 726,
      "Ġheart": 727,
      "á¸«rw": 728,
      "ry": 729,
      "Ġli": 730,
      "ke": 731,
      "ĠÏ«â²±": 732,
      "Ġcon": 733,
      "Ġwêľ£": 734,
      "Ġ4": 735,
      "Ġchi": 736,
      "Ġ-": 737,
      "ind": 738,
      "own": 739,
      "Ġpw": 740,
      "á¸¥m": 741,
      "Ġwor": 742,
      "ous": 743,
      "Ġsu": 744,
      "Ġthee": 745,
      "êľ£á¸«": 746,
      "Ġno": 747,
      "Ġac": 748,
      "ount": 749,
      "Ġal": 750,
      "Ġâ²¥â²ī": 751,
      "Ġâ²¥â²ģ": 752,
      "ĠEgypt": 753,
      "ach": 754,
      "Ġbefore": 755,
      "Ġland": 756,
      "Ġsn": 757,
      "Ġpe": 758,
      "Ġhouse": 759,
      "Ġmay": 760,
      "Ġinto": 761,
      "Ġêľ¥êľ£": 762,
      "Ġwhat": 763,
      "Th": 764,
      "ust": 765,
      "ise": 766,
      "â²Ļâ²ģ": 767,
      "â²ĥâ²ī": 768,
      "ms": 769,
      "Ġex": 770,
      "ĠÏ©â²ī": 771,
      "ood": 772,
      "ip": 773,
      "Ġmn": 774,
      "â²ĵâ²Ľ": 775,
      "sw": 776,
      "Ġmêŀ½": 777,
      "Ġear": 778,
      "Ġâ²§â²īâ²Ľ": 779,
      "á¸«r": 780,
      "Ġhand": 781,
      "â²Łâ²ķ": 782,
      "Ġâ²¡â²īÏ¥": 783,
      "ie": 784,
      "ĠU": 785,
      "Ġtr": 786,
      "Ġâ²±": 787,
      "Ġpn": 788,
      "Ġhad": 789,
      "Ġrêľ¥w": 790,
      "Ġwn": 791,
      "á¸¥tp": 792,
      ".\"": 793,
      "Ġshe": 794,
      "!\"": 795,
      "á¸¥êľ¥": 796,
      "Ġhead": 797,
      "Ġtim": 798,
      "ĠÏ«â²Łâ²īâ²ĵâ²¥": 799,
      "â²«": 800,
      "Ġêŀ½b": 801,
      "Ġwsêŀ½r": 802,
      "nfr": 803,
      "ĠrÊ¾": 804,
      "Ġkêľ£": 805,
      "Ġfather": 806,
      "my": 807,
      "Ġâ²Ĺ": 808,
      "ans": 809,
      "orn": 810,
      "ress": 811,
      "â²Ľâ²§": 812,
      "'t": 813,
      "ied": 814,
      "be": 815,
      "erv": 816,
      "â²£â²ģ": 817,
      "á¸¥êľ£": 818,
      "â²§â²Ľ": 819,
      "nswt": 820,
      "ate": 821,
      "May": 822,
      "wr": 823,
      "Ġâ²īâ²§â²ī": 824,
      "Ġâ²Ľâ²ı": 825,
      "pêľ£": 826,
      "yt": 827,
      "â²ıâ²ĵ": 828,
      "Ġâ²¡â²ģ": 829,
      "ure": 830,
      "â²Łâ²ĵ": 831,
      "Ġá¸«r": 832,
      "Ġâ²Łâ²": 833,
      "á¸¥w": 834,
      "Ġwat": 835,
      "Ġcame": 836,
      "py": 837,
      "av": 838,
      "che": 839,
      "Ġover": 840,
      "oy": 841,
      "ould": 842,
      "Ġthr": 843,
      "It": 844,
      "ade": 845,
      "â²©â²ī": 846,
      "ort": 847,
      "Ġmw": 848,
      "ov": 849,
      "Ġá¸¥tp": 850,
      "eth": 851,
      "aven": 852,
      "Ġá¸«êľ£": 853,
      "ment": 854,
      "Ġoff": 855,
      "Ġêľ£á¸«": 856,
      "ĠHorus": 857,
      "--------------------------------": 858,
      "Ġspe": 859,
      "Ġwere": 860,
      "si": 861,
      "self": 862,
      "Ġagainst": 863,
      "tr": 864,
      "Ġgive": 865,
      "ite": 866,
      "â²Łâ²£": 867,
      "Ġfl": 868,
      "Ġplace": 869,
      "â²Łâ²©â²Ľ": 870,
      "Ġlet": 871,
      "alt": 872,
      "ome": 873,
      "nder": 874,
      "ub": 875,
      "Ġsacrifice": 876,
      "wêľ£": 877,
      "Ġaf": 878,
      "Ġâ²ı": 879,
      "Ġêŀ½mn": 880,
      "ĠAm": 881,
      "ass": 882,
      "Ġknow": 883,
      "Ġlike": 884,
      "ords": 885,
      "â²ģâ²¥": 886,
      "â²ģâ²©â²±": 887,
      "Ġâ²£â²±â²Ļ": 888,
      "Ġtp": 889,
      "Ġmade": 890,
      "Ġfe": 891,
      "Ġunt": 892,
      "Ġgiven": 893,
      "Ġbecause": 894,
      "êŀ½mn": 895,
      "Be": 896,
      "so": 897,
      "êľ£w": 898,
      "ĠCh": 899,
      "Ġâ²ķâ²ģÏ©": 900,
      "â²ıâ²£â²ĵ": 901,
      "ud": 902,
      "Ġrm": 903,
      "ge": 904,
      "Ġsá¸«": 905,
      "â²£â²Ł": 906,
      "ople": 907,
      "Ġá¸ıi": 908,
      "Ġearth": 909,
      "ĠÏ©â²ģâ²Ľ": 910,
      "For": 911,
      "êľ¥ná¸«": 912,
      "ire": 913,
      "â²Ļâ²ī": 914,
      "Ġdy": 915,
      "tm": 916,
      "Ġns": 917,
      "Ġlife": 918,
      "eb": 919,
      "ions": 920,
      "sp": 921,
      "ĠTh": 922,
      "êŀ½b": 923,
      "Ġpeople": 924,
      "ret": 925,
      "Ġâ²īÏ©â²£": 926,
      "Ġbêľ£": 927,
      "Ġus": 928,
      "ap": 929,
      "Ġright": 930,
      "way": 931,
      "Ġbl": 932,
      "Ġserv": 933,
      "bn": 934,
      "ct": 935,
      "Ġen": 936,
      "Ġá¸«pr": 937,
      "Ġchild": 938,
      "ness": 939,
      "ack": 940,
      "Ġnn": 941,
      "itt": 942,
      "ĠÏ©â²±": 943,
      "Ġper": 944,
      "Ġfore": 945,
      "Ġdr": 946,
      "efer": 947,
      "Ġheaven": 948,
      "â²Łâ²Łâ²": 949,
      "ĠÏ«â²ĵ": 950,
      "Ġdid": 951,
      "of": 952,
      "ÏŃâ²ĵ": 953,
      "â²£â²ĵ": 954,
      "ide": 955,
      "Ġany": 956,
      "Ġwater": 957,
      "Ġye": 958,
      "mn": 959,
      "Ì¯-": 960,
      "Ġthings": 961,
      "Ġbread": 962,
      "00": 963,
      "â²Ļâ²ĵ": 964,
      "qu": 965,
      "Ġupon": 966,
      "Ġ3": 967,
      "urn": 968,
      "Ï¥â²ī": 969,
      "Ġbeen": 970,
      "Ġá¸¥nêľ¥": 971,
      "Ġne": 972,
      "Ġâ²ĽÏŃâ²ĵ": 973,
      "tt": 974,
      "Ġbut": 975,
      "outh": 976,
      "Ġ(=": 977,
      "ĠF": 978,
      "ought": 979,
      "ĠÏ©â²ģ": 980,
      "â²ıâ²Ĺ": 981,
      "Ġ..": 982,
      "á¸ır": 983,
      "âĢ": 984,
      "ĠR": 985,
      "Ġacc": 986,
      "olis": 987,
      "Ġá¸¥w": 988,
      "Ġâ²¡â²īâ²ķ": 989,
      "êŀ½ri": 990,
      "Å¡m": 991,
      "di": 992,
      "ĠÏ£â²±â²¡â²ĵ": 993,
      "Ġmêľ£": 994,
      "Ġâ²ĵâ²¥": 995,
      "Ġle": 996,
      "Ġbod": 997,
      "ĠNN": 998,
      "Ġâ²īâ²ĳ": 999,
      "Ġunder": 1000,
      "Ġdown": 1001,
      "Ġmake": 1002,
      "aught": 1003,
      "Ï«â²ĵ": 1004,
      "emp": 1005,
      "Ġaway": 1006,
      "â²ģâ²ķ": 1007,
      "They": 1008,
      "Ġafter": 1009,
      "Ġyear": 1010,
      "Ġmá¸¥": 1011,
      "mdw": 1012,
      "Ġâ²Ļâ²Łâ²©": 1013,
      "Ġrmá¹¯": 1014,
      "Ġthose": 1015,
      "ah": 1016,
      "ough": 1017,
      "Ġpower": 1018,
      "Ġshalt": 1019,
      "Ġâ²Ľâ²īÏ¥": 1020,
      "Ġsee": 1021,
      "Ġey": 1022,
      "Ġbel": 1023,
      "ell": 1024,
      "â²Łâ²¡": 1025,
      "â²§â²īâ²Ľ": 1026,
      "Ġgood": 1027,
      "ĠÅ¡m": 1028,
      "â²ıÏ¯": 1029,
      "Ġbu": 1030,
      "Ġliv": 1031,
      "ck": 1032,
      "ance": 1033,
      "epi": 1034,
      "â²©â²¥": 1035,
      "iter": 1036,
      "rn": 1037,
      "Ġâ²ħâ²ģâ²£": 1038,
      "hed": 1039,
      "á¸ım": 1040,
      "â²ģâ²ĥ": 1041,
      "ally": 1042,
      "Ġâ²Łâ²©â²±": 1043,
      "áºĸêľ£": 1044,
      "here": 1045,
      "Ġwhom": 1046,
      "Ġdead": 1047,
      "Ġâ²Ľâ²Łâ²©â²§â²ī": 1048,
      "â²ıâ²Ľ": 1049,
      "Ġway": 1050,
      "á¸«t": 1051,
      "Ġâ²Ľâ²ģâ²©": 1052,
      "istress": 1053,
      "Ġâ²¡â²ģâ²ĵ": 1054,
      "Ġits": 1055,
      "His": 1056,
      "wá¸ıêľ£": 1057,
      "Ġun": 1058,
      "aut": 1059,
      "bêŀ½": 1060,
      "iz": 1061,
      "Ġâ²Ļâ²Ļâ²ģâ²©": 1062,
      "ĠÏ£â²±â²¡â²ī": 1063,
      "Ġrá¸«": 1064,
      "end": 1065,
      "Ġâ²Ļâ²¡": 1066,
      "ants": 1067,
      "ĠKing": 1068,
      "â²īâ²Ļ": 1069,
      "by": 1070,
      "pper": 1071,
      "otect": 1072,
      "Ġbody": 1073,
      "ark": 1074,
      "pen": 1075,
      "opolis": 1076,
      "age": 1077,
      "Ġâ²Ľâ²ģâ²ĵ": 1078,
      "Ġcomm": 1079,
      "êľ£y": 1080,
      "Ġrul": 1081,
      "Ġnêľ£y": 1082,
      "oth": 1083,
      "ft": 1084,
      "ps": 1085,
      "Ġthese": 1086,
      "Ġâ²¥â²±": 1087,
      "zêľ£": 1088,
      "Ġsaying": 1089,
      "ĠÏ£â²ı": 1090,
      "ish": 1091,
      "het": 1092,
      "Ġâ²īâ²Ľâ²§": 1093,
      "Then": 1094,
      "Ġspeak": 1095,
      "Ġif": 1096,
      "Ġtime": 1097,
      "Ġdes": 1098,
      "ove": 1099,
      "ves": 1100,
      "wêľ¥": 1101,
      "Ġ....": 1102,
      "Ġcl": 1103,
      "Ġá¸«nt": 1104,
      "hh": 1105,
      "mêľ£": 1106,
      "ĠAmun": 1107,
      "Ġjust": 1108,
      "Ġsk": 1109,
      "oll": 1110,
      "ĠPh": 1111,
      "Ġmen": 1112,
      "ĠÏŃâ²ĵ": 1113,
      "Ġâ²Ľâ²Łâ²©Ï¯": 1114,
      "ne": 1115,
      "sêľ£": 1116,
      "Ï«â²ģ": 1117,
      "â²¥â²ģ": 1118,
      "dy": 1119,
      "Ġhrw": 1120,
      "Ġabout": 1121,
      "Your": 1122,
      "Ġtake": 1123,
      "Ġtêľ£y": 1124,
      "Ġprotect": 1125,
      "ign": 1126,
      "Ġchildren": 1127,
      "Ġppy": 1128,
      "ĠThe": 1129,
      "ĠÏ©â²ı": 1130,
      "Ġâ²§â²īÏ¥": 1131,
      "Ï£â²ī": 1132,
      "If": 1133,
      ".'": 1134,
      "Ġmother": 1135,
      "á¹¯n": 1136,
      "snb": 1137,
      "ĠMa": 1138,
      "Ġâ²īâ²£â²ī": 1139,
      "Ġâ²£â²ıÏ¯": 1140,
      "ified": 1141,
      "Ġâ²Ĺâ²ģ": 1142,
      "ered": 1143,
      "Ġbrought": 1144,
      "Ġcount": 1145,
      "Ġêŀ½rm": 1146,
      "Ġmtw": 1147,
      "â²īâ²§": 1148,
      "Ġnswt": 1149,
      "Ġgives": 1150,
      "hold": 1151,
      "Ġcr": 1152,
      "êľ£i": 1153,
      "Ġface": 1154,
      "Ġáºĸn": 1155,
      "ue": 1156,
      "wy": 1157,
      "Ġhor": 1158,
      "â²Łâ²ĥ": 1159,
      "Ġêŀ½á¸«": 1160,
      "Ġthrough": 1161,
      "ĠÏ©â²īâ²Ľ": 1162,
      "Ġâ²ıâ²ĵ": 1163,
      "Ġpass": 1164,
      "ĠAn": 1165,
      "êŀ½êľ£": 1166,
      "Ġâ²īÏ©â²£â²ģâ²ĵ": 1167,
      "les": 1168,
      "ording": 1169,
      "Ġbeing": 1170,
      "irst": 1171,
      "igh": 1172,
      "vil": 1173,
      "Ġad": 1174,
      "onth": 1175,
      "â²ķâ²ī": 1176,
      "Ġent": 1177,
      "â²ŁÏ¥": 1178,
      "Å¡r": 1179,
      "ont": 1180,
      "Ġwêľ¥b": 1181,
      "Ġâ²īÏ¥â²ī": 1182,
      "ber": 1183,
      "ree": 1184,
      "for": 1185,
      "ĠUpper": 1186,
      "ĠIs": 1187,
      "aughter": 1188,
      "Ġshould": 1189,
      "Ġour": 1190,
      "pw": 1191,
      "mêľ£êľ¥": 1192,
      "Ġwork": 1193,
      "ĠÏ©â²ıâ²§": 1194,
      "aster": 1195,
      "Ï£â²ĵ": 1196,
      "á¸¥á¸ı": 1197,
      "Ġaccording": 1198,
      "sand": 1199,
      "Ġbeaut": 1200,
      "ĠNefer": 1201,
      "â²±â²£": 1202,
      "ĠÏŃâ²Łâ²ĵ": 1203,
      "ĠÏ©â²Łâ²Łâ²©": 1204,
      "Ġapp": 1205,
      "Ġmouth": 1206,
      "Ġthousand": 1207,
      "Ġêŀ½t": 1208,
      "ĠPepi": 1209,
      "Ġunto": 1210,
      "Ġsin": 1211,
      "Ġá¸¥á¸ı": 1212,
      "Ġopen": 1213,
      "ĠHe": 1214,
      "Ġms": 1215,
      "ĠÏŃâ²Łâ²ĵâ²¥": 1216,
      "Ġdis": 1217,
      "Ġâ²ģâ²Ĺ": 1218,
      "Ġtemp": 1219,
      "â²Ľâ²ģ": 1220,
      "jest": 1221,
      "But": 1222,
      "pl": 1223,
      "jesty": 1224,
      "Ġthen": 1225,
      "ĠÏ£â²ıâ²£â²ī": 1226,
      "Ġâ²Ļâ²ı": 1227,
      "ja": 1228,
      "sh": 1229,
      "Ġnw": 1230,
      "Ġâ²Ľâ²ĵâ²Ļ": 1231,
      "Ġruler": 1232,
      "á¸¥n": 1233,
      "ern": 1234,
      "Ġâ²£â²±â²Ļâ²ī": 1235,
      "Ġenem": 1236,
      "Ġá¸ır": 1237,
      "Ġâ²ĥâ²±": 1238,
      "Ġâ²§â²Ľ": 1239,
      "able": 1240,
      "áºĸr": 1241,
      "mr": 1242,
      "Ġcan": 1243,
      "ael": 1244,
      "Ġâ²īâ²©â²ī": 1245,
      "â²ģâ²§â²ģ": 1246,
      "Ġâ²ķâ²ī": 1247,
      "Ġzp": 1248,
      "Ġpre": 1249,
      "rs": 1250,
      "â²Łâ²©â²¥": 1251,
      "Ġrem": 1252,
      "â²ıâ²Łâ²©": 1253,
      "Ġoil": 1254,
      "An": 1255,
      "Ġbring": 1256,
      "iful": 1257,
      "ná¸ı": 1258,
      "aw": 1259,
      "ail": 1260,
      "â²Ńâ²ı": 1261,
      "â²Ĺâ²ģ": 1262,
      "Ġwsr": 1263,
      "bs": 1264,
      "get": 1265,
      "ĠÏ£â²ģÏ«â²ī": 1266,
      "its": 1267,
      "ful": 1268,
      "ond": 1269,
      "â²Ľâ²ĵ": 1270,
      "ated": 1271,
      "ink": 1272,
      "â²Łâ²Ł": 1273,
      "att": 1274,
      "ost": 1275,
      "Ġevil": 1276,
      "This": 1277,
      "Ï©â²ıâ²§": 1278,
      "Horus": 1279,
      "tim": 1280,
      "ĠKa": 1281,
      "Ï©â²ĵ": 1282,
      "ĠÏ£â²ıâ²£â²ĵ": 1283,
      "Ġwhere": 1284,
      "Ġmistress": 1285,
      "Ġrighte": 1286,
      "his": 1287,
      "êŀ½nk": 1288,
      "Ġcall": 1289,
      "int": 1290,
      "Ġâ²«â²ı": 1291,
      "Ï£â²ģâ²Ľ": 1292,
      "Ġwithout": 1293,
      "ru": 1294,
      "Ġêŀ½mêľ£á¸«": 1295,
      "nêľ£": 1296,
      "Ġbrother": 1297,
      "ĠGreat": 1298,
      "Ġcommand": 1299,
      "fect": 1300,
      "srael": 1301,
      "ara": 1302,
      "ence": 1303,
      "qêľ£": 1304,
      "Ġná¸¥": 1305,
      "Ġps": 1306,
      "Ġgl": 1307,
      "oice": 1308,
      "ĠIsrael": 1309,
      "Ġrá¸ıi": 1310,
      "hes": 1311,
      "ĠÏ£â²ī": 1312,
      "nêŀ½": 1313,
      "Ġâ²Ł": 1314,
      "Ġwords": 1315,
      "mb": 1316,
      "Ġêŀ½y": 1317,
      "Ġâ²ķâ²±": 1318,
      "Ġport": 1319,
      "Ġâ²Ľâ²±": 1320,
      "â²¥â²ī": 1321,
      "Ġâ²ķâ²ģâ²§â²ģ": 1322,
      "Ġwent": 1323,
      "zw": 1324,
      "Ġalso": 1325,
      "Ġca": 1326,
      "Ġ5": 1327,
      "Ġâ²¡â²īÏ«â²ģ": 1328,
      "ther": 1329,
      "ering": 1330,
      "Ġâ²Ļâ²Ľâ²§": 1331,
      "ward": 1332,
      "Ġâ²Łâ²©â²Łâ²Ľ": 1333,
      "Ġthan": 1334,
      "â²Ĺâ²ĵ": 1335,
      "Ġwife": 1336,
      "Ġamong": 1337,
      "Ġforth": 1338,
      "ĠtÊ¾": 1339,
      "mêŀ½": 1340,
      "Ġbeautiful": 1341,
      "rêľ¥": 1342,
      "iterally": 1343,
      "oul": 1344,
      "----------------------------------------------------------------": 1345,
      "sá¸«": 1346,
      "Ġá¸¥êľ¥": 1347,
      "Ġêľ£s": 1348,
      "Ġgu": 1349,
      "Ġâ²Łâ²Ľ": 1350,
      "ĠÏ©â²ĵÏ«": 1351,
      "per": 1352,
      "Ġâ²¥â²ģÏ«â²ĵ": 1353,
      "Ġâ²ķâ²ģÏ©â²ĵ": 1354,
      "Ġdays": 1355,
      "literally": 1356,
      "Ġput": 1357,
      "Ġâ²Łâ²©â²Łâ²īâ²ĵ": 1358,
      "itten": 1359,
      "Ġdaughter": 1360,
      "Ġstr": 1361,
      "ob": 1362,
      "Ġim": 1363,
      "Ġâ²Łâ²©â²ģ": 1364,
      "Ġwom": 1365,
      "Ġservant": 1366,
      "Ġâ²ģâ²Ľâ²Łâ²ķ": 1367,
      "â²ıâ²©": 1368,
      "Ġcity": 1369,
      "There": 1370,
      "oved": 1371,
      "Ġlive": 1372,
      "Ġord": 1373,
      "dose": 1374,
      "Ġrêľ¥": 1375,
      "Ġâ²īÏ«â²īâ²Ľ": 1376,
      "ĠNe": 1377,
      "Ġâ²īÏ§": 1378,
      "ian": 1379,
      "akes": 1380,
      "Ġjustified": 1381,
      "â²Łâ²§â²ī": 1382,
      "ĠLower": 1383,
      "Ġhimself": 1384,
      "â²Ľâ²Łâ²©": 1385,
      "Ġêľ¥Å¡": 1386,
      "Ġtimes": 1387,
      "Ġforever": 1388,
      "ons": 1389,
      "Ġêľ¥á¸¥êľ¥": 1390,
      "oh": 1391,
      "Ġdon": 1392,
      "Ġá¸«ft": 1393,
      "ble": 1394,
      "Ġtemple": 1395,
      "êŀ½t": 1396,
      "pi": 1397,
      "Ġêŀ½têŀ½": 1398,
      "ations": 1399,
      "ase": 1400,
      "Oh": 1401,
      "Ġâ²Ľâ²īâ²ķ": 1402,
      "mtw": 1403,
      "oc": 1404,
      "##": 1405,
      "Ġâ²ģâ²£": 1406,
      "Ġdest": 1407,
      "ield": 1408,
      "Ġfour": 1409,
      "Ġpra": 1410,
      "êľ£s": 1411,
      "Ġchief": 1412,
      "oss": 1413,
      "â²ĥâ²īâ²Ľ": 1414,
      "ird": 1415,
      "á¸«pr": 1416,
      "mer": 1417,
      "â²īâ²£": 1418,
      "Ġha": 1419,
      "ried": 1420,
      "Ġborn": 1421,
      "Ġmonth": 1422,
      "Ġâ²Ĺâ²ģâ²Łâ²¥": 1423,
      "Ġset": 1424,
      "Ġeat": 1425,
      "Ġsáºĸ": 1426,
      "Ġmd": 1427,
      "eli": 1428,
      "Ġâ²Ļâ²±": 1429,
      "bêľ£á¸¥": 1430,
      "Ġnor": 1431,
      "Ġscri": 1432,
      "::": 1433,
      "Ġâ²Ľâ²īâ²©": 1434,
      "â²§â²īâ²Ļ": 1435,
      "dom": 1436,
      "Ġsec": 1437,
      "â²ĵâ²ķ": 1438,
      "Ġgave": 1439,
      "Ġfirst": 1440,
      "ult": 1441,
      "Ġâ²¯": 1442,
      "'m": 1443,
      "Ġrej": 1444,
      "Ġwhose": 1445,
      "Ġrece": 1446,
      "Ġâ²§â²īâ²§â²Ľ": 1447,
      "Ġho": 1448,
      "Ġeven": 1449,
      "â²ĵâ²§": 1450,
      "ary": 1451,
      "â²¥â²±": 1452,
      "ild": 1453,
      "riend": 1454,
      "Ġâ²Ľâ²ĵâ²ĥâ²īâ²Ľ": 1455,
      "ff": 1456,
      "mi": 1457,
      "Ġmount": 1458,
      "Ġâ²īÏ«â²±": 1459,
      "ph": 1460,
      "êŀ½y": 1461,
      "Ġfire": 1462,
      "Ġpriests": 1463,
      "ĠSon": 1464,
      "Ġmri": 1465,
      "ull": 1466,
      "Ġprov": 1467,
      "gether": 1468,
      "â²ŁÏŃ": 1469,
      "â²©â²Ĺ": 1470,
      "Ġrighteous": 1471,
      "Ġfound": 1472,
      "ĠBa": 1473,
      "Ġbw": 1474,
      "Wh": 1475,
      "â²Łâ²«": 1476,
      "Ġonly": 1477,
      "Ġcomes": 1478,
      "êľ¥á¸¥êľ¥": 1479,
      "Ġspok": 1480,
      "â²ĩâ²ī": 1481,
      "Ġâ²ĥâ²±â²ķ": 1482,
      "Ġâ²īÏ©â²Łâ²©â²Ľ": 1483,
      "Ġêŀ½êľ£": 1484,
      "thy": 1485,
      "Ġdone": 1486,
      "ĠAt": 1487,
      "My": 1488,
      "Ġâ²¥â²Ľ": 1489,
      "Ġâ²¥â²Ļ": 1490,
      "Ġâ²¥â²±â²§": 1491,
      "â²į": 1492,
      "Ġhast": 1493,
      "ĠIsis": 1494,
      "â²±â²ĥ": 1495,
      "Ġâ²£â²±â²Ļâ²ĵ": 1496,
      "Osiris": 1497,
      "Ġsil": 1498,
      "wsêŀ½r": 1499,
      "Ġâ²Ľâ²īâ²Ľ": 1500,
      "Å¡êľ¥": 1501,
      "êŀ½s": 1502,
      "Ġbeer": 1503,
      "ries": 1504,
      "Ġmore": 1505,
      "ook": 1506,
      "Ġdoes": 1507,
      "Ġback": 1508,
      "Ġbn": 1509,
      "Ġzáºĸêľ£": 1510,
      "ial": 1511,
      "Ġwá¸ı": 1512,
      "Ġwell": 1513,
      "êŀ½tn": 1514,
      "aken": 1515,
      "Ġplant": 1516,
      "man": 1517,
      "ubis": 1518,
      "Ġâ²Ļâ²¡â²ī": 1519,
      "bá¸¥": 1520,
      "Ġêŀ½s": 1521,
      "Ġever": 1522,
      "kare": 1523,
      "Ġcreat": 1524,
      "ick": 1525,
      "zp": 1526,
      "Ġpart": 1527,
      "bw": 1528,
      "Ġinc": 1529,
      "Ġâ²Ļâ²Ļâ²±": 1530,
      "__": 1531,
      "Ġâ²Ľâ²ĳ": 1532,
      "Ġfriend": 1533,
      "á¹¯êľ£": 1534,
      "â²£â²ģâ²ıâ²Ĺ": 1535,
      "Ġbar": 1536,
      "Ġá¸ıêľ£": 1537,
      "gs": 1538,
      "Ġturn": 1539,
      "Ġâ²£â²ī": 1540,
      "Ġother": 1541,
      "Ġcar": 1542,
      "ĠÅ¡êľ¥": 1543,
      "Ġâ²ĵâ²¥â²£â²ģâ²ıâ²Ĺ": 1544,
      "ti": 1545,
      "Ġtogether": 1546,
      "Ġâ²§â²£â²ī": 1547,
      "Ġ(?).": 1548,
      "alk": 1549,
      "Ġêŀ½wn": 1550,
      "Ġâ²ĽÏ§": 1551,
      "Ġlord": 1552,
      "Ġmdw": 1553,
      "tah": 1554,
      "Ġheal": 1555,
      "ved": 1556,
      "Ġjud": 1557,
      "Ġsá¸«m": 1558,
      "wi": 1559,
      "Ġtm": 1560,
      "â²©â²Ńâ²ı": 1561,
      "Ġstand": 1562,
      "ors": 1563,
      "min": 1564,
      "Ġêŀ½ni": 1565,
      "ster": 1566,
      "When": 1567,
      "Ġsays": 1568,
      "bb": 1569,
      "Ġnec": 1570,
      "Ġeyes": 1571,
      "Ġqu": 1572,
      "roy": 1573,
      "â²±â²¥": 1574,
      "Ġmsi": 1575,
      "ati": 1576,
      "Ġmêľ£êľ£": 1577,
      "ech": 1578,
      "Ġfeast": 1579,
      "êŀ½á¸«": 1580,
      "Ġrep": 1581,
      "Ġmountain": 1582,
      "Ġeye": 1583,
      "ift": 1584,
      "gin": 1585,
      "hi": 1586,
      "âĢĿ": 1587,
      "Ġâ²Łâ²©â²±Ï£": 1588,
      "á¸«nt": 1589,
      "Ġá¸¥nq": 1590,
      "ĠPhara": 1591,
      "bes": 1592,
      "nm": 1593,
      "eep": 1594,
      "Ġlight": 1595,
      "Ġfoll": 1596,
      "â²ıâ²£â²ĵâ²Łâ²Ľ": 1597,
      "ates": 1598,
      "â²ĥâ²ĵ": 1599,
      "Ġlives": 1600,
      "Ġsacrific": 1601,
      "â²ıâ²¥â²Łâ²©â²¥": 1602,
      "alace": 1603,
      "Ġuntil": 1604,
      "Another": 1605,
      "Ġvery": 1606,
      "ai": 1607,
      "Ġnight": 1608,
      "ger": 1609,
      "Ġâ²Ļâ²īâ²§": 1610,
      "tern": 1611,
      "Ġná¸¥á¸¥": 1612,
      "Ġrest": 1613,
      "Ġmid": 1614,
      "Ġhands": 1615,
      "ĠMajesty": 1616,
      "Ġprop": 1617,
      "Ġsky": 1618,
      "ĠChe": 1619,
      "led": 1620,
      "wor": 1621,
      "ened": 1622,
      "ival": 1623,
      "Words": 1624,
      "Ġâ²ĽÏ©â²ıâ²§": 1625,
      "):": 1626,
      "Ġâ²§â²īâ²ķ": 1627,
      "Ġsá¸ım": 1628,
      "Ġêľ¥n": 1629,
      "Ġsent": 1630,
      "attle": 1631,
      "Ġá¹¯w": 1632,
      "â²ģâ²Ļ": 1633,
      "ert": 1634,
      "Ġpo": 1635,
      "Ġpá¸¥": 1636,
      "â²īâ²Ĺ": 1637,
      "Ġfield": 1638,
      "Ġsc": 1639,
      "Ġhath": 1640,
      "ict": 1641,
      "Ġlook": 1642,
      "Ġâ²¯â²©â²Ńâ²ı": 1643,
      "estival": 1644,
      "Ġâ²Ľâ²¥â²ģ": 1645,
      "Ġpa": 1646,
      "Dja": 1647,
      "ra": 1648,
      "â²Łâ²Łâ²§": 1649,
      "sf": 1650,
      "Ġâ²Ńâ²£": 1651,
      "Ġêľ£b": 1652,
      "Ġâ²ķâ²ģ": 1653,
      "Ġabove": 1654,
      "pri": 1655,
      "Ġdestroy": 1656,
      "Ġgold": 1657,
      "Ġ...,": 1658,
      "As": 1659,
      "Ġâ²«â²ģâ²ĵ": 1660,
      "eft": 1661,
      "Ġliving": 1662,
      "Ġend": 1663,
      "Ġâ²ĵâ²ıâ²¥â²Łâ²©â²¥": 1664,
      "má¸¥": 1665,
      "Ġmwt": 1666,
      "Ġhear": 1667,
      "ship": 1668,
      "Ġenemies": 1669,
      "Ġact": 1670,
      "ĠAnubis": 1671,
      "ided": 1672,
      "ĠÏŃâ²ī": 1673,
      "hhhh": 1674,
      "Ġâ²£â²ģâ²Ľ": 1675,
      "Ġrnp": 1676,
      "Ġsb": 1677,
      "Ġsoul": 1678,
      "Ġfall": 1679,
      "oses": 1680,
      "Ġsmr": 1681,
      "'re": 1682,
      "Ġfront": 1683,
      "Ġbelong": 1684,
      "ĠThot": 1685,
      "êľ¥á¸¥": 1686,
      "nsw": 1687,
      "ĠÅ¡n": 1688,
      "Ġportions": 1689,
      "Ġold": 1690,
      "Ġâ²īâ²§â²ĥâ²ī": 1691,
      "esus": 1692,
      "â²§â²Ł": 1693,
      "Ġcalled": 1694,
      "Ġdwêľ£": 1695,
      "Ġsl": 1696,
      "Ġtn": 1697,
      "Ġêľ¥q": 1698,
      "\"\"": 1699,
      "Ġwêľ£á¸ı": 1700,
      "Ġâ²īâ²£â²±": 1701,
      "ĠFather": 1702,
      "Ġâ²§â²Łâ²©": 1703,
      "Ġ(?),": 1704,
      "Ġsilver": 1705,
      "ory": 1706,
      "Ġthing": 1707,
      "ces": 1708,
      "Ġâ²Łâ²©â²Ľ": 1709,
      "Ġbeh": 1710,
      "Ġsr": 1711,
      "kw": 1712,
      "êľ¥i": 1713,
      "ows": 1714,
      "â²ķâ²Ł": 1715,
      "kn": 1716,
      "Ġrec": 1717,
      "ĠÏ£â²ĵ": 1718,
      "Ġâ²īÏ§â²Łâ²©â²Ľ": 1719,
      "ĠÏ«â²Łâ²Ł": 1720,
      "Ġâ²Łâ²©â²Łâ²īâ²ĵâ²Ľ": 1721,
      "Ġwant": 1722,
      "Ġleft": 1723,
      "Ġ10": 1724,
      "á¸¥êľ£b": 1725,
      "Ġ100": 1726,
      "Ġhapp": 1727,
      "ĠÏ©â²±â²ĥ": 1728,
      "Ġwêŀ½": 1729,
      "te": 1730,
      "Ġtook": 1731,
      "Ġâ²īâ²Ľâ²ī": 1732,
      "Ġwhole": 1733,
      "Ġperfect": 1734,
      "â²Ľâ²ı": 1735,
      "istr": 1736,
      "â²£â²ıâ²ĵ": 1737,
      "Ġâ²Ľâ²Ļ": 1738,
      "ense": 1739,
      "Ġmyster": 1740,
      "Ġwá¸ıêľ£": 1741,
      "Ġpres": 1742,
      "Ġbre": 1743,
      "Ġâ²¡â²īâ²ĵ": 1744,
      "ning": 1745,
      "Ġmight": 1746,
      "â²Ļâ²Łâ²¥": 1747,
      "Ġâ²ģâ²ħ": 1748,
      "ever": 1749,
      "â²ĳâ²Ł": 1750,
      "In": 1751,
      "ĠSeth": 1752,
      "Ġá¹¯êľ£": 1753,
      "Ġcont": 1754,
      "eti": 1755,
      "ĠNeferkare": 1756,
      "times": 1757,
      "Ġpalace": 1758,
      "Ġâ²ģâ²Ļ": 1759,
      "fêľ£": 1760,
      "Ġexce": 1761,
      "ww": 1762,
      "Ġhoriz": 1763,
      "ĠÏ«â²ĵâ²Ľ": 1764,
      "Ġkeep": 1765,
      "hor": 1766,
      "Ġpsá¸ı": 1767,
      "â²§â²ıâ²£â²ĵâ²Łâ²Ľ": 1768,
      "Ġâ²¡â²ģâ²£": 1769,
      "Ġown": 1770,
      "Ġwould": 1771,
      "Ġcle": 1772,
      "âĢľ": 1773,
      "Ġâ²ģâ²Ĺâ²Ĺâ²ģ": 1774,
      "ĠHis": 1775,
      "reet": 1776,
      "Ġro": 1777,
      "Ġword": 1778,
      "Ġcause": 1779,
      "ised": 1780,
      "Ġguard": 1781,
      "ĠAp": 1782,
      "Ġma": 1783,
      "Ġá¸ıw": 1784,
      "Ġsat": 1785,
      "Ġside": 1786,
      "Ġá¸¥s": 1787,
      "Ġâ²īÏ©â²Łâ²Łâ²©": 1788,
      "Ġtaken": 1789,
      "Ġvoice": 1790,
      "â²Łâ²£â²¡": 1791,
      "â²£â²Łâ²¥": 1792,
      "athor": 1793,
      "ĠDj": 1794,
      "Ġnow": 1795,
      "Ġpeace": 1796,
      "ile": 1797,
      "de": 1798,
      "ince": 1799,
      "Ġtrans": 1800,
      "mw": 1801,
      "Ġfood": 1802,
      "Ġmany": 1803,
      "Ġwine": 1804,
      "essed": 1805,
      "kr": 1806,
      "Ġdrink": 1807,
      "Ġâ²£â²īÏ¥": 1808,
      "â²īâ²£â²ī": 1809,
      "med": 1810,
      "Ġplac": 1811,
      "á¸«êľ£": 1812,
      "Ġheard": 1813,
      "Let": 1814,
      "Ġmaster": 1815,
      "Ġfru": 1816,
      "â²Ŀ": 1817,
      "oney": 1818,
      "ĠÏ©â²Ł": 1819,
      "ĠÏ©â²£": 1820,
      "â²ĵâ²¥â²§": 1821,
      "záºĸêľ£": 1822,
      "ament": 1823,
      "Ġ7": 1824,
      "ib": 1825,
      "oint": 1826,
      "Ġreg": 1827,
      "Ġscribe": 1828,
      "Ġâ²Ľâ²ŁÏŃ": 1829,
      "Ġcour": 1830,
      "We": 1831,
      "alf": 1832,
      "Ġprotection": 1833,
      "ðĵ": 1834,
      "Ġâ²īâ²¥": 1835,
      "Ġag": 1836,
      "64": 1837,
      "Ġcomp": 1838,
      "ĠPet": 1839,
      "ropolis": 1840,
      "Ġâ²Łâ²©â²ĩâ²ī": 1841,
      "Ġâ²Ľâ²Ľâ²ī": 1842,
      "ptá¸¥": 1843,
      "rist": 1844,
      "Ġplants": 1845,
      "qr": 1846,
      "Ġwoman": 1847,
      "ars": 1848,
      "Ġwest": 1849,
      "Ġworld": 1850,
      "Ġdw": 1851,
      "Ġá¸ıá¸¥w": 1852,
      "Ġhorizon": 1853,
      "ands": 1854,
      "irit": 1855,
      "â²ģâ²£â²Ł": 1856,
      "rnp": 1857,
      "Ġâ²§â²ģâ²ĵ": 1858,
      "illed": 1859,
      "Ġâ²īâ²ķâ²ī": 1860,
      "dwêľ£": 1861,
      "Do": 1862,
      "esh": 1863,
      "ĠÅ¡r": 1864,
      "Ġêŀ½wi": 1865,
      "ared": 1866,
      "Ġêŀ½bd": 1867,
      "Ġâ²¥â²±â²§â²Ļ": 1868,
      "Ġjudg": 1869,
      "Ġco": 1870,
      "Ġsons": 1871,
      "ng": 1872,
      "Ġâ²ĽÏ§â²ıâ²§": 1873,
      "ĠV": 1874,
      "ĠMer": 1875,
      "Ġ6": 1876,
      "ĠMoses": 1877,
      "Ġâ²¡â²Łâ²Ĺ": 1878,
      "ðĵį": 1879,
      "Ġwhile": 1880,
      "Ġâ²īÏ«â²Ľ": 1881,
      "Ġlead": 1882,
      "Ġwnn": 1883,
      "Ġêŀ½np": 1884,
      "Ġâ²ģâ²£â²ī": 1885,
      "Ġâ²Ľâ²¥â²±": 1886,
      "Ġqd": 1887,
      "selves": 1888,
      "Ġâ²Ľâ²ģÏ©": 1889,
      "â²Ľâ²Łâ²¥": 1890,
      "Ï£â²±": 1891,
      "nzw": 1892,
      "me": 1893,
      "oyal": 1894,
      "Ġrs": 1895,
      "Ġwalk": 1896,
      "gr": 1897,
      "Ġwêľ£á¸¥": 1898,
      "Ġâ²ģâ²£â²Ń": 1899,
      "Ġbehind": 1900,
      "Ġsaw": 1901,
      "Ġsun": 1902,
      "ari": 1903,
      "Ġá¸«tm": 1904,
      "Ġappear": 1905,
      "ÏŃâ²¥": 1906,
      "Ġâ²Łâ²©â²ģâ²ĵ": 1907,
      "Ġetern": 1908,
      "Ġanother": 1909,
      "Ġlove": 1910,
      "tá¸¥": 1911,
      "Ġá¸«n": 1912,
      "Ġmná¸«": 1913,
      "ished": 1914,
      "Ġbeloved": 1915,
      "Ġ,": 1916,
      "ĠPharaoh": 1917,
      "'ll": 1918,
      "Ġtre": 1919,
      "Ġdep": 1920,
      "eni": 1921,
      "ched": 1922,
      "Ġple": 1923,
      "dess": 1924,
      "aving": 1925,
      "Ġfind": 1926,
      "Ġbêľ£k": 1927,
      "pd": 1928,
      "ones": 1929,
      "og": 1930,
      "â²©â²¥â²ıâ²¥": 1931,
      "Ġfear": 1932,
      "Ġâ²Ńâ²ı": 1933,
      "mt": 1934,
      "und": 1935,
      "Ġbecome": 1936,
      "Ġâ²ģâ²¡": 1937,
      "What": 1938,
      "Ġra": 1939,
      "Ġrd": 1940,
      "ĠÅ¡w": 1941,
      "ely": 1942,
      "â²±â²Łâ²©â²Ľ": 1943,
      "â²Łâ²Łâ²©â²ī": 1944,
      "Ï©â²ī": 1945,
      "up": 1946,
      "Ġâ²Ľâ²Łâ²ĥ": 1947,
      "Ġmakes": 1948,
      "Ġhow": 1949,
      "Ġâ²īÏ©â²£â²ıâ²ĵ": 1950,
      "â²Łâ²©â²ĵ": 1951,
      "ĠÏ©â²ĵâ²§": 1952,
      "rif": 1953,
      "ew": 1954,
      "Ġâ²¡â²īâ²§": 1955,
      ".,": 1956,
      "Ġâ²¡â²īâ²Ľ": 1957,
      "Ġtri": 1958,
      "Ġansw": 1959,
      "ĠChrist": 1960,
      "To": 1961,
      "Ġâ²Ļâ²±â²©â²¥â²ıâ²¥": 1962,
      "rá¸ıi": 1963,
      "zi": 1964,
      "â²Ĺâ²ī": 1965,
      "iver": 1966,
      "ĠJesus": 1967,
      "Ġná¸ı": 1968,
      "ĠÏŃâ²Łâ²īâ²ĵâ²¥": 1969,
      "Ġeach": 1970,
      "She": 1971,
      "ses": 1972,
      "Ġbêŀ½": 1973,
      "ener": 1974,
      "thing": 1975,
      "Ġcountries": 1976,
      "ministr": 1977,
      "Ġâ²īâ²£â²ģâ²§": 1978,
      "á¸¥ry": 1979,
      "ha": 1980,
      "Ġsecret": 1981,
      "Ġtherefore": 1982,
      "ĠHeli": 1983,
      "Ġá¸¥êľ£b": 1984,
      "but": 1985,
      "ĠÏ©â²ĥ": 1986,
      "Ġâ²ĳâ²ıâ²Ľ": 1987,
      "So": 1988,
      "ĠPtah": 1989,
      "Behold": 1990,
      "ang": 1991,
      "Ġarms": 1992,
      "Ġsnb": 1993,
      "isf": 1994,
      "â²Ľâ²īâ²©": 1995,
      "Ġjoy": 1996,
      "ss": 1997,
      "ĠAnd": 1998,
      "gth": 1999,
      "Ġte": 2000,
      "Ġcountry": 2001,
      "Ġêŀ½p": 2002,
      "Ġarm": 2003,
      "heal": 2004,
      "Ġdeath": 2005,
      "Ġâ²¥Ï©â²ĵ": 2006,
      "ÌŃ": 2007,
      "inen": 2008,
      "Ġlong": 2009,
      "cern": 2010,
      "Ġâ²¡â²īÏ«â²ī": 2011,
      "ator": 2012,
      "aid": 2013,
      "ities": 2014,
      "ilt": 2015,
      "Now": 2016,
      "ks": 2017,
      "Ġres": 2018,
      "Ġholy": 2019,
      "Ġcreated": 2020,
      "fl": 2021,
      "ni": 2022,
      "êŀ½p": 2023,
      "Ġstrong": 2024,
      "Ġlands": 2025,
      "Ġmidst": 2026,
      "ither": 2027,
      "Ġthree": 2028,
      "Ġloves": 2029,
      "Ġprovided": 2030,
      "Ġâ²ĳâ²ıâ²Ľâ²Łâ²©": 2031,
      "Ġx": 2032,
      "Ġâ²¥â²±â²§â²īâ²Ļ": 2033,
      "â²©â²¥â²§â²ıâ²£â²ĵâ²Łâ²Ľ": 2034,
      "Ġta": 2035,
      "â²ĵâ²Ľâ²ĵ": 2036,
      "Ġpraise": 2037,
      "wá¸ı": 2038,
      "Ġá¸¥qêľ£": 2039,
      "Ġâ²£â²£â²Ł": 2040,
      "ison": 2041,
      "Ġground": 2042,
      "with": 2043,
      "Ġá¸«t": 2044,
      "ious": 2045,
      "ny": 2046,
      "Ġêŀ½á¸¥": 2047,
      "hêľ£": 2048,
      "Ġyears": 2049,
      "bread": 2050,
      "ĠHer": 2051,
      "Ġwnm": 2052,
      "ĠÏ§â²ģ": 2053,
      "fêŀ½": 2054,
      "Ġá¸«êľ£s": 2055,
      "ĠsÅ¡m": 2056,
      "Ġâ²Łâ²©â²±â²Ļ": 2057,
      "Ï£â²§": 2058,
      "Ġgoing": 2059,
      "ures": 2060,
      "ises": 2061,
      "Ġêŀ½êľ£b": 2062,
      "Ġâ²¡â²Łâ²©": 2063,
      "Ġâ²ĵâ²ī": 2064,
      "â²ģâ²ĵâ²Łâ²¥": 2065,
      "ction": 2066,
      "ere": 2067,
      "ĠÅ¡ps": 2068,
      "Ġoffer": 2069,
      "Ġâ²īâ²Ľâ²īÏ©": 2070,
      "Ġcattle": 2071,
      "Ġâ²ģâ²ĵ": 2072,
      "seer": 2073,
      "Ġhere": 2074,
      "orning": 2075,
      "Ġadministr": 2076,
      "Ġbow": 2077,
      "ĠÏ«â²Ł": 2078,
      "Ġâ²Ļâ²©â²¥â²§â²ıâ²£â²ĵâ²Łâ²Ľ": 2079,
      "Ġsub": 2080,
      "day": 2081,
      "cend": 2082,
      "Don": 2083,
      "Ġpure": 2084,
      "amp": 2085,
      "Ġâ²§â²ģâ²ķâ²Ł": 2086,
      "pêľ¥": 2087,
      "ason": 2088,
      "Ġstren": 2089,
      "Ġcompl": 2090,
      "',": 2091,
      "ĠÏŃâ²±": 2092,
      "Ġsuff": 2093,
      "hing": 2094,
      "ix": 2095,
      "ĠHathor": 2096,
      "den": 2097,
      "Ġsá¸ı": 2098,
      "aily": 2099,
      "Ġâ²¥â²Łâ²Łâ²©": 2100,
      "Ġones": 2101,
      "world": 2102,
      "Ġatt": 2103,
      "chet": 2104,
      "Ġflesh": 2105,
      "su": 2106,
      "Ġmat": 2107,
      "Ġâ²īâ²ĵâ²ī": 2108,
      "ĠHeliopolis": 2109,
      "Ġfar": 2110,
      "ier": 2111,
      "á¸«n": 2112,
      "Ġfollow": 2113,
      "â²ıâ²ĥ": 2114,
      "Ġâ²īâ²ĳâ²ĥâ²ī": 2115,
      "Ġâ²¥â²Łâ²©": 2116,
      "Ġwriter": 2117,
      "anch": 2118,
      "Ġâ²£â²±": 2119,
      "Ġâ²Łâ²ĵ": 2120,
      "ites": 2121,
      "Ġ/": 2122,
      "áºĸnw": 2123,
      "â²©â²Ĺâ²ı": 2124,
      "hy": 2125,
      "Ġâ²īâ²Ľ": 2126,
      "Ġhigh": 2127,
      ".)": 2128,
      "row": 2129,
      "têŀ½t": 2130,
      "Ï£â²ģ": 2131,
      "ĠÏŃâ²Łâ²Ļ": 2132,
      "ĠWest": 2133,
      "êľ¥r": 2134,
      "Ġorder": 2135,
      "Ġdaily": 2136,
      "uch": 2137,
      "fig": 2138,
      "off": 2139,
      "Ġâ²¥â²ĵ": 2140,
      "Å¡têľ£": 2141,
      "Ġret": 2142,
      "Ġá¹¯êľ£y": 2143,
      "Come": 2144,
      "bi": 2145,
      "Ġwp": 2146,
      "Ġmorning": 2147,
      "Ġsaith": 2148,
      "ived": 2149,
      "Ġbo": 2150,
      "ale": 2151,
      "Ġâ²Ľâ²Ļâ²Ļâ²ģ": 2152,
      "Who": 2153,
      "Ġcaus": 2154,
      "ĠQ": 2155,
      "â²ģâ²ĳ": 2156,
      "Ġconcern": 2157,
      "essel": 2158,
      "els": 2159,
      "Ġcare": 2160,
      "Ġche": 2161,
      "ĠÏ©â²ĵÏ«â²īâ²Ľ": 2162,
      "Ġfruit": 2163,
      "ited": 2164,
      "Ġsá¸«r": 2165,
      "Ġâ²ĥâ²ģâ²Ĺ": 2166,
      "Ġdisc": 2167,
      "Ġenemy": 2168,
      "Ġgs": 2169,
      "â²ģâ²¡": 2170,
      "á¹¯i": 2171,
      "Ġyoung": 2172,
      "Ġky": 2173,
      "ĠÅ¡di": 2174,
      "Ġvessel": 2175,
      "ured": 2176,
      "â²ıâ²§â²ıâ²¥": 2177,
      "ains": 2178,
      "â²±â²Ľâ²§": 2179,
      "####": 2180,
      "asure": 2181,
      "Ġask": 2182,
      "Ġdwell": 2183,
      "Ġeld": 2184,
      "ĠHor": 2185,
      "Ġêŀ½êľ£w": 2186,
      "á¸ıw": 2187,
      "Ġmeat": 2188,
      "men": 2189,
      "Ġgoddess": 2190,
      "Ġdiv": 2191,
      "â²Łâ²©â²ĩ": 2192,
      "Ġoverseer": 2193,
      "Ġnum": 2194,
      "Ġbark": 2195,
      "â²ĥâ²±": 2196,
      "â²Łâ²©â²±": 2197,
      "Ġthine": 2198,
      "uth": 2199,
      "Ġroyal": 2200,
      "Ġdark": 2201,
      "Ġsatisf": 2202,
      "â²ıâ²§â²ī": 2203,
      "ĠÏ£â²Łâ²¡": 2204,
      "Ġâ²īâ²ĵâ²±â²§": 2205,
      "â²ĵâ²¥â²§â²Łâ²¥": 2206,
      "Ġposs": 2207,
      "Ġâ²¡ÏŃâ²¥": 2208,
      "Å¡mêľ¥": 2209,
      "Ġêŀ½tn": 2210,
      "Ġâ²¡â²£": 2211,
      "ĠÏ£â²Łâ²£â²¡": 2212,
      "aking": 2213,
      ":)": 2214,
      "eds": 2215,
      "Ġêľ£pd": 2216,
      "Ġblood": 2217,
      "::::": 2218,
      "als": 2219,
      "Ġdist": 2220,
      "Ġfo": 2221,
      "Ġsame": 2222,
      "ĠAb": 2223,
      "Ġnêŀ½": 2224,
      "Ġná¸«t": 2225,
      "Ġâ²¥â²Łâ²Ľ": 2226,
      "Ġâ²ķâ²Ĺ": 2227,
      "â²±â²Ļâ²ģ": 2228,
      "qd": 2229,
      "sáºĸ": 2230,
      "eph": 2231,
      "â²įâ²ī": 2232,
      "Ġtell": 2233,
      "ĠAtum": 2234,
      "â²ıâ²Ļ": 2235,
      "Ġcast": 2236,
      "Year": 2237,
      "Ġêľ¥á¸¥êľ£": 2238,
      "Ġmajesty": 2239,
      "over": 2240,
      "têŀ½w": 2241,
      "(?),": 2242,
      "â²Ļâ²Ł": 2243,
      "Ġsave": 2244,
      "Ġspoke": 2245,
      "má¸ı": 2246,
      "num": 2247,
      "yr": 2248,
      "Ġmer": 2249,
      "Ġmeans": 2250,
      "Ġhid": 2251,
      "Ġâ²§â²īâ²§â²īâ²Ľ": 2252,
      "Ï©â²Ļ": 2253,
      "Ġforeign": 2254,
      "alm": 2255,
      "Ġnecropolis": 2256,
      "Ġprophet": 2257,
      "Ġâ²Ļâ²īâ²Ľ": 2258,
      "Ġdie": 2259,
      "ĠÏ«â²ĵÏ«": 2260,
      "Ġste": 2261,
      "Ġcoming": 2262,
      "ginning": 2263,
      "ĠPr": 2264,
      "ister": 2265,
      "ition": 2266,
      "Ġâ²¡â²īâ²¥": 2267,
      "Ġâ²¡â²īâ²©": 2268,
      "Ġâ²Ļâ²ģâ²£": 2269,
      "Ġâ²ģÏ£": 2270,
      "ĠÅ¡ms": 2271,
      "az": 2272,
      "Ġread": 2273,
      "á¸ıbêľ£": 2274,
      "Ġbehold": 2275,
      "ĠMe": 2276,
      "\",": 2277,
      "Ġâ²Ńâ²ģ": 2278,
      "Ġincense": 2279,
      "Å¡n": 2280,
      ",\"": 2281,
      "Ġagent": 2282,
      "Ġêŀ½rp": 2283,
      "oun": 2284,
      "ĠÏ¥â²ĵ": 2285,
      "ĠÏ£â²±â²¡": 2286,
      "Ġdi": 2287,
      "Ġpossess": 2288,
      "Ġhaving": 2289,
      "ĠÏ£â²Łâ²Łâ²": 2290,
      "êľ¥b": 2291,
      "ĠHati": 2292,
      "side": 2293,
      "Ġenter": 2294,
      "Ġsacrificial": 2295,
      "Is": 2296,
      "16": 2297,
      "Ġser": 2298,
      "ices": 2299,
      "--------------------------------------------------------------------------------------------------------------------------------": 2300,
      "Ġâ²¡â²Łâ²Ĺâ²ĵâ²¥": 2301,
      ".âĢĿ": 2302,
      "Ġmystery": 2303,
      "Ġfull": 2304,
      "ĠBe": 2305,
      "pe": 2306,
      "Ġdri": 2307,
      "Ġang": 2308,
      "hu": 2309,
      "Ġ8": 2310,
      "Ġship": 2311,
      "Ġsêŀ½": 2312,
      "ĠÏ£â²Łâ²©": 2313,
      "ĠOne": 2314,
      "êŀ½mêľ£á¸«": 2315,
      "(?).": 2316,
      "Ġ1000": 2317,
      "Ï©â²ģâ²Ĺ": 2318,
      "Ġwêľ£s": 2319,
      "Ġthrone": 2320,
      "Ġdepart": 2321,
      "â²īâ²©â²ī": 2322,
      "ky": 2323,
      "wnn": 2324,
      "Ġseven": 2325,
      "rt": 2326,
      "Ġsupp": 2327,
      "ents": 2328,
      "Ġunderworld": 2329,
      "Ġreceive": 2330,
      "who": 2331,
      "ĠÏ£â²Łâ²Łâ²¡": 2332,
      "Ġêŀ½d": 2333,
      "Ġfav": 2334,
      "â²ŁÏ«": 2335,
      "ĠÏŃâ²ĵÏ«": 2336,
      "Ġdec": 2337,
      "Ġaround": 2338,
      "Ġâ²ģâ²§": 2339,
      "Ġâ²±â²Ľ": 2340,
      "Ġâ²Ńâ²£â²ĵâ²¥â²§â²Łâ²¥": 2341,
      "Ġnbw": 2342,
      "Ġ(?": 2343,
      "wo": 2344,
      "ens": 2345,
      "Ġâ²§â²Ļ": 2346,
      "Ġá¸«rw": 2347,
      "Ġqn": 2348,
      "Ġfeet": 2349,
      "ĠmÅ¡êľ¥": 2350,
      "Ġpers": 2351,
      "Ġdel": 2352,
      "ee": 2353,
      "ific": 2354,
      "â²£â²¡": 2355,
      "wsr": 2356,
      "Ġsbêľ£": 2357,
      "ĠMaat": 2358,
      "irth": 2359,
      "aat": 2360,
      "Ġêľ¥r": 2361,
      "zá¸¥": 2362,
      "Ġswe": 2363,
      "af": 2364,
      "Ġgrá¸¥": 2365,
      "Ġlast": 2366,
      "Ġwritten": 2367,
      "ĠNeith": 2368,
      "Ġâ²ĵâ²Łâ²©â²ĩ": 2369,
      "Ġêľ£bd": 2370,
      "Ġget": 2371,
      "ments": 2372,
      "Ġspr": 2373,
      "Ġhall": 2374,
      "Ġâ²¡â²Ľâ²īâ²©": 2375,
      "yw": 2376,
      "áºĸnm": 2377,
      "Ġspoken": 2378,
      "that": 2379,
      "Ġable": 2380,
      "hrw": 2381,
      "Ġut": 2382,
      "Ġmag": 2383,
      "Ġêľ¥Å¡êľ£": 2384,
      "Ġwbn": 2385,
      "nas": 2386,
      "ock": 2387,
      "Ġâ²¥â²ı": 2388,
      "aves": 2389,
      "Ġêŀ½tm": 2390,
      "â²ģâ²ķâ²ĵ": 2391,
      "Ġcut": 2392,
      "Ġap": 2393,
      "Ġfight": 2394,
      "Ġâ²Ļâ²Ļâ²Łâ²Ľ": 2395,
      "Ġsend": 2396,
      "â²īâ²ĵâ²ĩ": 2397,
      "Ġbird": 2398,
      "ittle": 2399,
      "Ġâ²Ļâ²ģâ²Ľ": 2400,
      "Ġ{": 2401,
      "Ì¯â¸Ĺ": 2402,
      "Ġworship": 2403,
      "ĠÏ©â²ĵâ²Ľâ²ģ": 2404,
      "Ġseen": 2405,
      "healing": 2406,
      "?\"": 2407,
      "ines": 2408,
      "Ġâ²ĵâ²£â²ĵ": 2409,
      "ĠThebes": 2410,
      "vers": 2411,
      "Ï£Ï¯": 2412,
      "â²Łâ²¡â²Łâ²¥": 2413,
      "act": 2414,
      "ual": 2415,
      "Ġinher": 2416,
      "ĠnÊ¾": 2417,
      "Ġâ²¥â²Łâ²¡": 2418,
      "á¸¥p": 2419,
      "dr": 2420,
      "â²ĵâ²ģâ²¥": 2421,
      "Ġá¸«rp": 2422,
      "Ġglory": 2423,
      "Ġâ²£â²Łâ²Ļ": 2424,
      "Ġdidn": 2425,
      "Ch": 2426,
      "â²Ļâ²¡": 2427,
      "Ġá¸«m": 2428,
      "gêľ£": 2429,
      "Ġá¸«sf": 2430,
      "Ġkind": 2431,
      "ipe": 2432,
      "'.": 2433,
      "byd": 2434,
      "Ġhour": 2435,
      "otep": 2436,
      "Ġsouth": 2437,
      "ná¸«t": 2438,
      "bydos": 2439,
      "Ġptá¸¥": 2440,
      "Ġâ²ģâ²£â²Ńâ²±â²Ľ": 2441,
      "Ġcons": 2442,
      "Ġsome": 2443,
      "anct": 2444,
      "hern": 2445,
      "Ġprep": 2446,
      "Ġest": 2447,
      "Ġwar": 2448,
      "rew": 2449,
      "ĠAbydos": 2450,
      "Ġáºĸrd": 2451,
      "Ġplaces": 2452,
      "aton": 2453,
      "Ġgate": 2454,
      "Ġstrength": 2455,
      "Ġbirth": 2456,
      "Ġâ²Łâ²©â²±â²Ľ": 2457,
      "ley": 2458,
      "mri": 2459,
      "Ġpray": 2460,
      "Ġâ²īâ²ĵâ²£â²ī": 2461,
      "Ġservants": 2462,
      "Ġnorth": 2463,
      "Ġyet": 2464,
      "Ġâ²¥â²©": 2465,
      "sb": 2466,
      "Ġconcerning": 2467,
      "Ġâ²Ļâ²ĳâ²Ł": 2468,
      "Ġadministrator": 2469,
      "Ġá¸ısr": 2470,
      "Ġâ²Ńâ²±": 2471,
      "â²Łâ²Ļâ²Łâ²¥": 2472,
      "ĠJud": 2473,
      "Ġart": 2474,
      "ead": 2475,
      "Ġâ²Ļâ²§â²Ł": 2476,
      "avid": 2477,
      "Å¡êľ£": 2478,
      "Ġmrr": 2479,
      "Wr": 2480,
      "ĠTj": 2481,
      "êŀ½ni": 2482,
      "Ġbull": 2483,
      "That": 2484,
      "rá¸«": 2485,
      "Ġná¸ım": 2486,
      "Ġâ²Ļâ²ģÏ©": 2487,
      "Ġlittle": 2488,
      "Ġáºĸnm": 2489,
      "Ġtop": 2490,
      "Ġreturn": 2491,
      "less": 2492,
      "â²īâ²ĳ": 2493,
      "Ġbreat": 2494,
      "ĠTwo": 2495,
      "eret": 2496,
      "Ġtwt": 2497,
      "ĠDavid": 2498,
      "Ġbeginning": 2499,
      "ays": 2500,
      "Ġmatter": 2501,
      "Ġsea": 2502,
      "Ġlaw": 2503,
      "Ġsá¸¥á¸ı": 2504,
      "Ġâ²īâ²Ļâ²ģ": 2505,
      "Ġform": 2506,
      "Ġass": 2507,
      "Ġarmy": 2508,
      "Ġá¹¯êľ£w": 2509,
      "At": 2510,
      "Ġâ²§â²ģÏ©": 2511,
      "â²¥â²ĵ": 2512,
      "Ġâ²īâ²©": 2513,
      "Ġâ²ģâ²ĥ": 2514,
      "ouses": 2515,
      "Ġâ²Ļâ²¡â²£": 2516,
      "sen": 2517,
      "Å¡d": 2518,
      "bêľ¥": 2519,
      "Ġkm": 2520,
      "ĠÏ©â²ģâ²¡": 2521,
      "ner": 2522,
      "Ġsweet": 2523,
      "Ï©â²Ł": 2524,
      "hotep": 2525,
      "Ġhar": 2526,
      "Ġinherit": 2527,
      "Ġi": 2528,
      "Ġmess": 2529,
      "not": 2530,
      "ĠAch": 2531,
      "iss": 2532,
      "Ġá¸¥á¸¥": 2533,
      "â²Ļâ²Ľ": 2534,
      "Ġflood": 2535,
      "een": 2536,
      "Ġâ²Ľâ²īâ²§â²īâ²Ľ": 2537,
      "â²ıâ²£â²Łâ²Ľ": 2538,
      "nefer": 2539,
      "Ġ9": 2540,
      "Ġâ²ĩâ²ģâ²©": 2541,
      "osed": 2542,
      "â²ıâ²ķ": 2543,
      "Ġexist": 2544,
      "32": 2545,
      "Ġâ²Łâ²©â²£â²Ł": 2546,
      "ged": 2547,
      "right": 2548,
      "Ġâ²Ļâ²ģâ²£â²ī": 2549,
      "All": 2550,
      "old": 2551,
      "Ġhalf": 2552,
      "pÅ¡": 2553,
      "Ġgift": 2554,
      "Greet": 2555,
      "ĠÏ©â²ģâ²£â²Ł": 2556,
      "Ġproc": 2557,
      "resh": 2558,
      "Ġpleas": 2559,
      "ank": 2560,
      "Ġanswered": 2561,
      "Ġsle": 2562,
      "Ġwind": 2563,
      "Ġâ²±Ï£": 2564,
      "Ġâ²§â²±â²Łâ²©â²Ľ": 2565,
      "Thou": 2566,
      "Ġcommanded": 2567,
      "____": 2568,
      "dêŀ½": 2569,
      "Ġâ²Ľâ²ĵÏ£Ï¯": 2570,
      "Ġpáºĸr": 2571,
      "ecause": 2572,
      "ĠJer": 2573,
      "bek": 2574,
      "ĠAton": 2575,
      "Ġboth": 2576,
      "Ġâ²§â²ıâ²©": 2577,
      "Ġcomplet": 2578,
      "reen": 2579,
      "â²¥â²§": 2580,
      "Ġá¸¥ry": 2581,
      "Ġâ²£â²ģ": 2582,
      "â²Łâ²ŁÏ£â²ī": 2583,
      "hhhhhhhh": 2584,
      "Ġcaused": 2585,
      "Ġâ²¥â²Łâ²Łâ²©â²Ľ": 2586,
      "Ġâ²īâ²Ļâ²ĵ": 2587,
      "Ġdp": 2588,
      "Ġseal": 2589,
      "Ġdarkness": 2590,
      "br": 2591,
      "Ġâ²Ĺâ²ģâ²ģâ²©": 2592,
      "Ġâ²Łâ²©â²ģâ²ģâ²ĥ": 2593,
      "Ġanoint": 2594,
      "aint": 2595,
      "Ġgmi": 2596,
      "Ġnh": 2597,
      "â²ĵâ²Łâ²¥": 2598,
      "ene": 2599,
      "Ġâ²¥â²±â²Ļâ²ģ": 2600,
      "wêľ¥b": 2601,
      "ĠAnch": 2602,
      "ia": 2603,
      "Ġnmt": 2604,
      "á¸«êľ¥": 2605,
      "Ġâ²īâ²¥â²ıâ²§": 2606,
      "ime": 2607,
      "ĠIn": 2608,
      "Ġsanct": 2609,
      "Ġwild": 2610,
      "oud": 2611,
      "Ġrise": 2612,
      "Ġâ²§â²ıâ²ĵ": 2613,
      "wty": 2614,
      "Ġdesert": 2615,
      "Ġqbá¸¥": 2616,
      "bed": 2617,
      "Ġfig": 2618,
      "\"\"\"\"": 2619,
      "Ġnsw": 2620,
      "Ġmult": 2621,
      "Ġá¸«êľ¥i": 2622,
      "Ï©â²§": 2623,
      "sness": 2624,
      "ĠMy": 2625,
      "Ġgoes": 2626,
      "met": 2627,
      "Ġhouses": 2628,
      "Ġâ²īÏ«â²Ļ": 2629,
      "Ġsná¹¯r": 2630,
      "Ġchar": 2631,
      "Ġsatisfied": 2632,
      "try": 2633,
      "Ġwall": 2634,
      "â²©â²Ľâ²ı": 2635,
      "Å¡w": 2636,
      "Ġimage": 2637,
      "inet": 2638,
      "ides": 2639,
      "â²ģâ²£â²ģ": 2640,
      "Ġêŀ½z": 2641,
      "pro": 2642,
      "Ġnations": 2643,
      "â²Łâ²©â²Ł": 2644,
      "ĠÅ¡têľ£": 2645,
      "ĠMistress": 2646,
      "â²ĵâ²¥â²ī": 2647,
      "Ġturned": 2648,
      "mêľ¥": 2649,
      "iting": 2650,
      "eces": 2651,
      "Ġneither": 2652,
      "Ġâ²¡â²Ľâ²īâ²©â²Ļâ²ģ": 2653,
      "Ġâ²Ľâ²īâ²¥": 2654,
      "rr": 2655,
      "Ġsf": 2656,
      "Ġbur": 2657,
      "ĠAchet": 2658,
      "Ġcham": 2659,
      "pêľ£y": 2660,
      "II": 2661,
      "Ġâ²Ļâ²Łâ²ŁÏ£â²ī": 2662,
      "Ġwhite": 2663,
      "Ġâ²ĩâ²ĵâ²ķ": 2664,
      "air": 2665,
      "Ġlinen": 2666,
      "cy": 2667,
      "ĠLight": 2668,
      "Ġprince": 2669,
      "Ġwnêŀ½s": 2670,
      "â²Ļâ²ĵâ²Ł": 2671,
      "==": 2672,
      "Ġwnw": 2673,
      "Ġâ²ģâ²ģ": 2674,
      "Ġâ²Ľâ²§â²ŁÏ¥": 2675,
      "ĠÏ©â²ĻÏ©â²ģâ²Ĺ": 2676,
      "eben": 2677,
      "amenti": 2678,
      "Ġfam": 2679,
      "ope": 2680,
      "Ġbelongs": 2681,
      "ott": 2682,
      "adi": 2683,
      "Br": 2684,
      "ames": 2685,
      "Ġthemselves": 2686,
      "â²Łâ²Ļâ²ĵâ²ģ": 2687,
      "ĠZ": 2688,
      "Ġâ²Łâ²©â²ģâ²ĥ": 2689,
      "aul": 2690,
      "â²¡â²īÏ«â²ī": 2691,
      "â²¡â²¡â²ī": 2692,
      "Ġworks": 2693,
      "Ġter": 2694,
      "â²ĵâ²Ļ": 2695,
      "ives": 2696,
      "Ġreceived": 2697,
      "Ġâ²¥â²Ļâ²Łâ²©": 2698,
      "Ġhappened": 2699,
      "ĠÅ¡êľ£": 2700,
      "ĠÅ¡zp": 2701,
      "One": 2702,
      "Ġyourself": 2703,
      "ĠÅ¡mêľ¥": 2704,
      "Ġce": 2705,
      "Ġcloth": 2706,
      "Ġsister": 2707,
      "Ġâ²Ļâ²īÏ©": 2708,
      "Ġâ²ķâ²Łâ²¥": 2709,
      "Ġqêľ£": 2710,
      "Ġâ²Ļâ²ıÏ£": 2711,
      "Ġcontin": 2712,
      "Ġequ": 2713,
      "â²ħâ²ı": 2714,
      "Ġêľ£á¸¥": 2715,
      "ich": 2716,
      "Ġwood": 2717,
      "ision": 2718,
      "owed": 2719,
      "êŀ½mi": 2720,
      "Written": 2721,
      "Ġdestroyed": 2722,
      "yy": 2723,
      "Ġhoney": 2724,
      "Ġhearts": 2725,
      "Ġportion": 2726,
      "Ġblessed": 2727,
      "êľ¥n": 2728,
      "Ġâ²ĩâ²ĵâ²ģ": 2729,
      "Ġnt": 2730,
      "Ġâ²¥â²Łâ²«": 2731,
      "Ġâ²ĵâ²Ľâ²ĵ": 2732,
      "ling": 2733,
      "Ġwêŀ½êľ£": 2734,
      "Ġêŀ½wf": 2735,
      "Ġeternity": 2736,
      "á¸ısr": 2737,
      "etj": 2738,
      "usal": 2739,
      "kt": 2740,
      "Greetings": 2741,
      "cher": 2742,
      "Ġem": 2743,
      "â²£â²īâ²Ļ": 2744,
      "Ġoffering": 2745,
      "Ġhêľ£i": 2746,
      "ĠGeb": 2747,
      "ĠÏ«â²±â²ķ": 2748,
      "Ġways": 2749,
      "Ġmill": 2750,
      "Ġstat": 2751,
      "Ġburied": 2752,
      "Ġgone": 2753,
      "Ġ20": 2754,
      "sá¸«m": 2755,
      "?'": 2756,
      "Ġfavor": 2757,
      "usalem": 2758,
      "Ġfal": 2759,
      "Ġconf": 2760,
      "Ġâ²ĩâ²ģâ²©â²īâ²ĵâ²ĩ": 2761,
      "rêŀ½": 2762,
      "Ġâ²Ļâ²Ł": 2763,
      "Ġâ²Ļâ²Łâ²Łâ²©": 2764,
      "ontamenti": 2765,
      "Ġpoison": 2766,
      "â²ħâ²īâ²Ĺ": 2767,
      "Ġpwy": 2768,
      "Ġalt": 2769,
      "Ġrejo": 2770,
      "Give": 2771,
      "Ġhêľ£b": 2772,
      "Ġopened": 2773,
      "St": 2774,
      "ject": 2775,
      "sá¸¥á¸ı": 2776,
      "ĠÏ£â²§â²īâ²Ļ": 2777,
      "â²ģâ²Ľâ²§": 2778,
      "â²ĵâ²¥â²ĵ": 2779,
      "Ġhoru": 2780,
      "ĠJerusalem": 2781,
      "Ġâ²§â²ıâ²©â²§â²Ľ": 2782,
      "hab": 2783,
      "Ġ(\"": 2784,
      "ĠSe": 2785,
      "â²ĳâ²£â²ī": 2786,
      "cum": 2787,
      "ats": 2788,
      "ily": 2789,
      "Ġâ²Ļâ²īâ²īâ²©â²ī": 2790,
      "Ġclean": 2791,
      "sÅ¡têľ£": 2792,
      "arach": 2793,
      "â²Ĺâ²Łâ²¥": 2794,
      "Ġloved": 2795,
      "Ġfell": 2796,
      "Ġbarley": 2797,
      "Ġâ²Ľâ²Łâ²ĥâ²ī": 2798,
      "Ġspirit": 2799,
      "sm": 2800,
      "ĠLands": 2801,
      "Ġêľ£w": 2802,
      "ousness": 2803,
      "Ġêľ¥b": 2804,
      "ages": 2805,
      "Ġâ²¥â²ķ": 2806,
      "cept": 2807,
      "Ġcourt": 2808,
      "Ġâ²Łâ²©â²ī": 2809,
      "Ġsbk": 2810,
      "ci": 2811,
      "Ġsur": 2812,
      "Ġá¸¥z": 2813,
      "Ġdoor": 2814,
      "Ġbuild": 2815,
      "Ġperson": 2816,
      "ired": 2817,
      "ĠÏ£â²īâ²Ľ": 2818,
      "tole": 2819,
      "Ġá¸¥êľ£ty": 2820,
      "rd": 2821,
      "â²¡â²īÏ«â²ģ": 2822,
      "Ġtruth": 2823,
      "Ġwd": 2824,
      "Ġriver": 2825,
      "Ġá¸ıêľ£á¸ıêľ£": 2826,
      "HG": 2827,
      "oe": 2828,
      "â²ģâ²ĩ": 2829,
      "Ġstone": 2830,
      "ĠGods": 2831,
      "â²ģâ²ħ": 2832,
      "Ġâ²¥â²§": 2833,
      "Ġjudgment": 2834,
      "Ġá¸«êľ¥": 2835,
      "Ġbetw": 2836,
      "Ġexcell": 2837,
      "Ġbetween": 2838,
      "Festival": 2839,
      "Ġsit": 2840,
      "Ġhy": 2841,
      "Ġâ²£Ï©": 2842,
      "set": 2843,
      "Ï¥â²ĵ": 2844,
      "Ġâ²§â²ģâ²ģ": 2845,
      "Ġâ²¥â²Ļâ²ı": 2846,
      "Ġfilled": 2847,
      "odu": 2848,
      "Ġnothing": 2849,
      "Ġá¸¥bs": 2850,
      "ĠÏ©â²©": 2851,
      "â²¡â²ı": 2852,
      "Ġ15": 2853,
      "ĠIri": 2854,
      "Ġâ²ĵâ²±â²§": 2855,
      "que": 2856,
      "Ġâ²ķâ²Łâ²¥â²Ļâ²Łâ²¥": 2857,
      "gl": 2858,
      "Ġsing": 2859,
      "Ġâ²Łâ²©â²±â²§": 2860,
      "ĠGau": 2861,
      "ĠÏ©â²ģâ²§": 2862,
      "Ġlim": 2863,
      "Ġâ²£â²ĵ": 2864,
      "spect": 2865,
      "ioned": 2866,
      "Ġseiz": 2867,
      "tolemy": 2868,
      "Ġopp": 2869,
      "Ġbord": 2870,
      "okar": 2871,
      "Ġrw": 2872,
      "mm": 2873,
      "Ġdev": 2874,
      "Ġsins": 2875,
      "undred": 2876,
      "ðĵį¹": 2877,
      "ðĵįº": 2878,
      "Ġsy": 2879,
      "Ġpur": 2880,
      "Ġbest": 2881,
      "stand": 2882,
      "Ġunc": 2883,
      "Ġá¸ıs": 2884,
      "â²ħâ²īâ²Ĺâ²Łâ²¥": 2885,
      ");": 2886,
      "Ġ12": 2887,
      "Ġsmn": 2888,
      "Ġwpi": 2889,
      "Ġáºĸêľ£": 2890,
      "their": 2891,
      "acle": 2892,
      "Ġqs": 2893,
      "Ġexp": 2894,
      ")!": 2895,
      "â²Ľâ²Łâ²ĥ": 2896,
      "itation": 2897,
      "Ġhealthy": 2898,
      "ced": 2899,
      "â²Ľâ²§â²ī": 2900,
      "Ġâ²īÏ§â²£â²ıâ²ĵ": 2901,
      "//": 2902,
      "Ġmighty": 2903,
      "ĠÏ©â²£â²ģâ²ĵ": 2904,
      "Ġâ²ĵâ²ģâ²ķ": 2905,
      "Ġhidden": 2906,
      "Ġâ²Ļâ²ŁÏ£â²ĵ": 2907,
      "ians": 2908,
      "Ġfat": 2909,
      "Ġâ²Ļâ²±â²Łâ²©": 2910,
      "Ġâ²ĥâ²ģâ²ķâ²ĵ": 2911,
      "Ġsmêľ£": 2912,
      "Ġmrá¸¥": 2913,
      "Ġsecond": 2914,
      "Pepi": 2915,
      "Ġâ²Łâ²©â²Łâ²īâ²ĵÏ£": 2916,
      "Ġâ²ĵâ²±": 2917,
      "â²ģâ²Ĺâ²ıâ²Ļ": 2918,
      "Ġrejoice": 2919,
      "Ġâ²¥Ï©â²ĵâ²Ļâ²ī": 2920,
      "Ġâ²ĵâ²ģâ²ķâ²±â²ĥ": 2921,
      "Ġcat": 2922,
      "Ġcities": 2923,
      "Ġburn": 2924,
      "Ġêŀ½nk": 2925,
      "wêľ£s": 2926,
      "Ġâ²¡â²£â²Łâ²«": 2927,
      "Ġâ²Ľâ²īâ²Ļâ²ģ": 2928,
      "Ġclot": 2929,
      "Ġá¸«êľ£êľ¥": 2930,
      "Lord": 2931,
      "ting": 2932,
      "Ġpu": 2933,
      "from": 2934,
      "Ġred": 2935,
      "Ġcannot": 2936,
      "How": 2937,
      "Ï«â²±": 2938,
      "ĠLHG": 2939,
      "Ġnear": 2940,
      "Ï«â²īâ²Ľ": 2941,
      "Ġsince": 2942,
      "Ġâ²Ļâ²Ľâ²§â²£": 2943,
      "Ġhel": 2944,
      "iece": 2945,
      "form": 2946,
      "Ġsá¸¥m": 2947,
      "Ġwy": 2948,
      "Ġinst": 2949,
      "â²Łâ²Ľâ²¥": 2950,
      "vent": 2951,
      "á¸«m": 2952,
      "abl": 2953,
      "Ġfathers": 2954,
      "ephthy": 2955,
      "á¸¥s": 2956,
      "Ġcry": 2957,
      "amed": 2958,
      "ĠSo": 2959,
      "Ġseed": 2960,
      "Ġcarry": 2961,
      "Ġwestern": 2962,
      "pêŀ½": 2963,
      "Ġwise": 2964,
      "ĠÏ«â²īâ²Ļ": 2965,
      "ical": 2966,
      "Get": 2967,
      "Å¡ps": 2968,
      "Ġmar": 2969,
      "Ġnoble": 2970,
      "oultry": 2971,
      "pá¸¥": 2972,
      "Ġhundred": 2973,
      "Ġêŀ½á¹¯i": 2974,
      "Ġreb": 2975,
      "ached": 2976,
      "hetep": 2977,
      "Ġappe": 2978,
      "Ġpresence": 2979,
      "ephthys": 2980,
      "pent": 2981,
      "Ġgbb": 2982,
      "Ġheark": 2983,
      "Ġâ²Ľâ²īâ²ĵ": 2984,
      "eliver": 2985,
      "Ã¶": 2986,
      "Ġâ²į": 2987,
      "Ġâ²ģâ²ħâ²ħâ²īâ²Ĺâ²Łâ²¥": 2988,
      "Ġutter": 2989,
      "Ġâ²īâ²¥â²ī": 2990,
      "Ġthird": 2991,
      "units": 2992,
      "Ġâ²īâ²ĵâ²¥": 2993,
      "Ġbecame": 2994,
      "Ġnew": 2995,
      "Ġâ²ķâ²±Ï¯": 2996,
      "hr": 2997,
      "pat": 2998,
      "Ġsá¹¯êľ£": 2999,
      "Ġâ²¥â²ģâ²£": 3000,
      "Ġá¸ıbêľ¥": 3001,
      "Ġâ²īâ²§â²Łâ²Łâ²§": 3002,
      ".:": 3003,
      "Ġâ²īâ²ĳâ²Ľâ²Łâ²¥": 3004,
      "On": 3005,
      "Ġðĵį¹": 3006,
      "Ġá¸¥kêľ£": 3007,
      "ĠÅ¡mi": 3008,
      "Oipe": 3009,
      "ĠMin": 3010,
      "ĠUnas": 3011,
      "Ġofferings": 3012,
      "Ġmuch": 3013,
      "ĠÏ«â²ģ": 3014,
      "Ġthyself": 3015,
      "Ġsuch": 3016,
      "enu": 3017,
      "ĠChent": 3018,
      "Ġâ²ĩâ²ĵâ²ķâ²ģâ²ĵâ²Łâ²¥": 3019,
      "Am": 3020,
      "Ġsight": 3021,
      "Ġdise": 3022,
      "ilk": 3023,
      "Ġâ²§â²±": 3024,
      "ĠShe": 3025,
      "Ġcapt": 3026,
      "Ġsd": 3027,
      "Ġdign": 3028,
      "Ġâ²ģâ²¥": 3029,
      "ĠstÅ¡": 3030,
      "ĠSp": 3031,
      "Ġfresh": 3032,
      "zêŀ½": 3033,
      "Ġbad": 3034,
      "Ġêŀ½wêľ¥": 3035,
      "Ġtold": 3036,
      "Ġlist": 3037,
      "Ġletter": 3038,
      "Ġâ²ĳâ²ģ": 3039,
      "Ġ=": 3040,
      "â²Ļâ²ı": 3041,
      "usiris": 3042,
      "ls": 3043,
      "Ġwound": 3044,
      "qn": 3045,
      "rance": 3046,
      "ote": 3047,
      "Ġâ²ŁÏ©â²ĵ": 3048,
      "ĠÏ£â²ĵâ²Ľâ²ī": 3049,
      "hat": 3050,
      "ka": 3051,
      "na": 3052,
      "you": 3053,
      "Ġwis": 3054,
      "â²Łâ²©â²Ĺ": 3055,
      "pped": 3056,
      "ĠNeb": 3057,
      "acob": 3058,
      "Ġcrown": 3059,
      "Ġâ²Ļâ²±â²ĵâ²§": 3060,
      "ream": 3061,
      "riest": 3062,
      "Ġpowerful": 3063,
      "figured": 3064,
      "aith": 3065,
      "con": 3066,
      "Ġpoultry": 3067,
      "Ġwit": 3068,
      "á¸¥nêľ¥": 3069,
      "pet": 3070,
      "â²ıâ²©â²ī": 3071,
      "Ġâ²§â²ĥ": 3072,
      "Ġemb": 3073,
      "amun": 3074,
      "Ġnzw": 3075,
      "Ġâ²§â²īâ²ĵ": 3076,
      "Ï£â²±â²Łâ²©": 3077,
      "Ġsword": 3078,
      "â²«â²ı": 3079,
      "enior": 3080,
      "Ġmt": 3081,
      "Ġgener": 3082,
      "ometh": 3083,
      "Ġchamber": 3084,
      "Ġgm": 3085,
      "ĠAs": 3086,
      "ĠNec": 3087,
      "â²ıâ²Ľâ²ı": 3088,
      "Ġpurif": 3089,
      "Ġmêľ¥": 3090,
      "Ġmon": 3091,
      "Ġmoney": 3092,
      "Ġâ²§â²Łâ²¡â²Łâ²¥": 3093,
      "Ġêŀ½rr": 3094,
      "ops": 3095,
      "bnr": 3096,
      "Ġguardian": 3097,
      "Ġexcellent": 3098,
      "Ġdny": 3099,
      "ĠJacob": 3100,
      "Therefore": 3101,
      "lly": 3102,
      "â²ĥâ²Ł": 3103,
      "Ġâ²īâ²ĵâ²Ļâ²ī": 3104,
      "Ġknown": 3105,
      "Ġsnake": 3106,
      "Ġtree": 3107,
      "Ġgar": 3108,
      "áºĸn": 3109,
      "ĠÅ¡mw": 3110,
      "name": 3111,
      "Ġneed": 3112,
      "Ã¤": 3113,
      "Ġtest": 3114,
      "Ġêŀ½mi": 3115,
      "Ġflame": 3116,
      "ĠAmen": 3117,
      "Ġmine": 3118,
      "Ġbas": 3119,
      "stp": 3120,
      "Ġâ²Ľâ²§â²Łâ²ķ": 3121,
      "ĠÏ©â²§": 3122,
      "itud": 3123,
      "Ġnever": 3124,
      "Ġâ²¥â²Ľâ²ŁÏ¥": 3125,
      "Ġwá¸¥m": 3126,
      "êľ¥q": 3127,
      "ĠSy": 3128,
      "ĠBusiris": 3129,
      "Ġsêľ¥ná¸«": 3130,
      "ric": 3131,
      "ĠKai": 3132,
      "wards": 3133,
      "Ġhold": 3134,
      "ned": 3135,
      "Ġâ²Łâ²©â²ı": 3136,
      "Ġthus": 3137,
      "Ġneck": 3138,
      "ĠApis": 3139,
      "Ġsleep": 3140,
      "Ï£â²±â²Łâ²©Ï£â²ĵ": 3141,
      "ior": 3142,
      "Ġmk": 3143,
      "ĠLet": 3144,
      "ĠPa": 3145,
      "Ġeverything": 3146,
      "God": 3147,
      "ĠSen": 3148,
      "Ġqmêľ£": 3149,
      "Ġâ²Ľâ²ĳâ²Łâ²ķ": 3150,
      "tÊ¾": 3151,
      "Ġtab": 3152,
      "hered": 3153,
      "Ġâ²Ľâ²īâ²§â²Ľ": 3154,
      "ighty": 3155,
      "Ġá¸¥msi": 3156,
      "páºĸr": 3157,
      "â²ĥâ²ı": 3158,
      "ĠNi": 3159,
      "â²ıâ²Łâ²©â²§": 3160,
      "Ptah": 3161,
      "â²Ľâ²ģâ²ĵ": 3162,
      "ĠÅ¡s": 3163,
      "Ġkingdom": 3164,
      "god": 3165,
      "ug": 3166,
      "Ġsol": 3167,
      "Ġcould": 3168,
      "ĠÏ©â²ĵâ²§â²īâ²Ľ": 3169,
      "Ġsheep": 3170,
      "Ġsanctu": 3171,
      "êľ¥m": 3172,
      "Ġdisease": 3173,
      "ouble": 3174,
      "Ġfaith": 3175,
      "Ġtomb": 3176,
      "Ï«â²ģâ²ĵ": 3177,
      "Ġâ²ĳâ²£": 3178,
      "der": 3179,
      "Ġgri": 3180,
      "â²ķâ²Łâ²§": 3181,
      "ruction": 3182,
      "Ġmilk": 3183,
      "Ġel": 3184,
      "ĠDay": 3185,
      "Ġdef": 3186,
      "Ġdidst": 3187,
      "ĠNew": 3188,
      "iol": 3189,
      "â²Ļâ²ıâ²ĵ": 3190,
      "â²ģâ²Ĺâ²Ĺâ²ģ": 3191,
      "arachte": 3192,
      "round": 3193,
      "yl": 3194,
      "Ġâ²§â²īâ²©": 3195,
      "Ġâ²Ľâ²ıâ²Łâ²©": 3196,
      "ape": 3197,
      "ĠÏ©â²ıâ²¡â²¡â²ī": 3198,
      "flict": 3199,
      "Ġttêŀ½": 3200,
      "Ġfing": 3201,
      "Ġexalt": 3202,
      "'ve": 3203,
      "Ġspeech": 3204,
      "Ġbrothers": 3205,
      "Ġâ²Ľâ²ģÏ©Ï¯": 3206,
      "kwêŀ½": 3207,
      "arn": 3208,
      "â²¡â²ĵâ²¥": 3209,
      "â²Ĺâ²Ł": 3210,
      "unk": 3211,
      "Ġknows": 3212,
      "Ġmercy": 3213,
      "Ġaltar": 3214,
      "oly": 3215,
      "aron": 3216,
      "ĠHet": 3217,
      "Ġmyself": 3218,
      "Ġhealth": 3219,
      "Ġhon": 3220,
      "Ġá¸ıá¸ı": 3221,
      "Ġseek": 3222,
      "Ġpf": 3223,
      "Ġâ²£â²ģâ²§": 3224,
      "â²±â²§â²īâ²Ľ": 3225,
      "Ġremem": 3226,
      "Ġremain": 3227,
      "Ġptr": 3228,
      "Ġâ²Ļâ²ģâ²ĳ": 3229,
      "Ġwomen": 3230,
      "ds": 3231,
      "Ġinhab": 3232,
      "ĠÏ©â²Ĺâ²ĵ": 3233,
      "ĠÏ£â²±â²ĵ": 3234,
      "Ġâ²ķâ²Ĺâ²ıâ²£â²Łâ²Ľ": 3235,
      "á¸¥qêľ£": 3236,
      "nbw": 3237,
      "oke": 3238,
      "omething": 3239,
      "!'": 3240,
      "Ġâ²Ľâ²Ľ": 3241,
      "ĠHouse": 3242,
      "á¸¥wty": 3243,
      "Ġdiscip": 3244,
      "fe": 3245,
      "Ġsal": 3246,
      "Ġtwice": 3247,
      "Ġgrain": 3248,
      "ĠWab": 3249,
      "msi": 3250,
      "ĠRam": 3251,
      "xt": 3252,
      "iness": 3253,
      "ĠÏ©â²±â²¥": 3254,
      "Ġâ²¥â²Łâ²«â²ĵâ²ģ": 3255,
      "ating": 3256,
      "â²ŁÏ£": 3257,
      "Ġâ²īâ²ĵâ²Ľâ²ī": 3258,
      "Ġdescend": 3259,
      "Ġround": 3260,
      "Ġâ²ķâ²ģâ²ķ": 3261,
      "ĠNut": 3262,
      "Ġanim": 3263,
      "Ġâ²ķâ²ģâ²ģ": 3264,
      "Ġcompan": 3265,
      "Ġraised": 3266,
      "Ġdistri": 3267,
      "Take": 3268,
      "ii": 3269,
      "Ġten": 3270,
      "Ġdem": 3271,
      "Ġbuilt": 3272,
      "á¸«tm": 3273,
      "Ġâ²Łâ²©Ï«â²ģâ²ĵ": 3274,
      "owing": 3275,
      "Ġprodu": 3276,
      "êŀ½wi": 3277,
      "Ġsá¹¯": 3278,
      "Ġná¸¥m": 3279,
      "Ġstp": 3280,
      "Ġâ²¥Ï©â²ĵâ²Ļâ²ĵ": 3281,
      "offering": 3282,
      "êŀ½têŀ½": 3283,
      "Ġâ²ķâ²Łâ²§": 3284,
      "Ġascend": 3285,
      "domain": 3286,
      "Bring": 3287,
      "iqu": 3288,
      "mnw": 3289,
      "Ġsep": 3290,
      "â²©â²ĵ": 3291,
      "fu": 3292,
      "Ġá¹±": 3293,
      "Ġstood": 3294,
      "â²ģâ²Ľâ²ī": 3295,
      "Ġâ²§â²īâ²¥": 3296,
      "â²ıâ²Łâ²©â²ĵ": 3297,
      "Ġcoun": 3298,
      "Ġkill": 3299,
      "Ġwhe": 3300,
      "ĠwÅ¡": 3301,
      "Ġlift": 3302,
      "Ġâ²Ļâ²Łâ²©Ï¯": 3303,
      "Ġâ²Ľâ²Łâ²ĥâ²ĵ": 3304,
      "come": 3305,
      "Ġpi": 3306,
      "Ġhb": 3307,
      "ots": 3308,
      "mêľ£êľ£": 3309,
      "Ġfields": 3310,
      "Ġwitness": 3311,
      "Ġsenior": 3312,
      "Ġná¸«": 3313,
      "Ġfine": 3314,
      "rial": 3315,
      "ĠNephthys": 3316,
      "Ġâ²«â²ī": 3317,
      "Ġleave": 3318,
      "Ġsá¸ır": 3319,
      "Ġglor": 3320,
      "oon": 3321,
      "Ġâ²§â²Łâ²Łâ²©": 3322,
      "Ï«â²Łâ²Ļ": 3323,
      "Ġâ²īâ²Ļ": 3324,
      "ĠPtolemy": 3325,
      "Ġâ²ĵâ²¥Ï«â²īâ²Ľ": 3326,
      "land": 3327,
      "â²Łâ²Ĺâ²ı": 3328,
      "ĠsÅ¡": 3329,
      "Ġbêŀ½êľ£": 3330,
      "Ġhum": 3331,
      "Ġfive": 3332,
      "Ġâ²Łâ²©â²ģÏ©": 3333,
      "Ġcor": 3334,
      "amid": 3335,
      "Ġanything": 3336,
      "Ġappeared": 3337,
      "sd": 3338,
      "then": 3339,
      "ledge": 3340,
      "Ġmillions": 3341,
      "Look": 3342,
      "fn": 3343,
      "Ġcub": 3344,
      "Ġcert": 3345,
      "arge": 3346,
      "á¹¯êľ£y": 3347,
      "ĠÏ©â²±â²±": 3348,
      "Ġrulers": 3349,
      "hn": 3350,
      "jj": 3351,
      "oured": 3352,
      "Ġwhy": 3353,
      "ances": 3354,
      "emti": 3355,
      "Ġâ²Ľâ²Łâ²Ļâ²Łâ²¥": 3356,
      "Ġâ²ķâ²ı": 3357,
      "ophis": 3358,
      "ictor": 3359,
      "Ġwbêľ£": 3360,
      "Ġlaid": 3361,
      "Ġgrave": 3362,
      "Ġevening": 3363,
      "Ġpoor": 3364,
      "Ġsix": 3365,
      "ately": 3366,
      "Ġá¸¥b": 3367,
      "lean": 3368,
      "Ġmountains": 3369,
      "êŀ½á¸¥": 3370,
      "Ġdrunk": 3371,
      "ĠÏ«â²ĵâ²§": 3372,
      "Ġunderstand": 3373,
      "Ġven": 3374,
      "Ġrel": 3375,
      "Ġâ²Ľâ²§â²īâ²£â²ī": 3376,
      "ĠChontamenti": 3377,
      "Â·": 3378,
      "ĠTa": 3379,
      "Ġmtr": 3380,
      "ĠSpirit": 3381,
      "lit": 3382,
      "oil": 3383,
      "êŀ½np": 3384,
      "Ġsms": 3385,
      "Â·Â·": 3386,
      "Ġbig": 3387,
      "ĠPadi": 3388,
      "See": 3389,
      "Ġshr": 3390,
      "Ġswêľ£": 3391,
      "Ġburial": 3392,
      "Ġâ²£â²Łâ²Ļâ²¡â²ĵ": 3393,
      "zn": 3394,
      "########": 3395,
      "YY": 3396,
      "Ġtrue": 3397,
      "Ġâ²Ľâ²ıâ²©": 3398,
      "lex": 3399,
      "ĠAaron": 3400,
      "Ġâ²Ļâ²īâ²ĳ": 3401,
      "Rec": 3402,
      "ãĢ": 3403,
      "Ġsbêŀ½": 3404,
      "ected": 3405,
      "Ġoffic": 3406,
      "Ġâ²§â²ģÏ©â²Ł": 3407,
      "ná¸¥": 3408,
      "ta": 3409,
      "Ġwa": 3410,
      "Ġeast": 3411,
      "adj": 3412,
      "Their": 3413,
      "Ġreve": 3414,
      "Ġstáºĸ": 3415,
      "aces": 3416,
      "astern": 3417,
      "Ġes": 3418,
      "Ġlion": 3419,
      "pa": 3420,
      "retched": 3421,
      "proach": 3422,
      "â²Ĺâ²ıâ²Ĺ": 3423,
      "êŀ½wn": 3424,
      "â²«â²ī": 3425,
      "Ġâ²Ļâ²Łâ²©â²§â²ī": 3426,
      "\")": 3427,
      "mÅ¡êľ¥": 3428,
      "Ġnkt": 3429,
      "Ġstri": 3430,
      "ĠDja": 3431,
      "ches": 3432,
      "dm": 3433,
      "wer": 3434,
      "Ġfish": 3435,
      "eding": 3436,
      "Ġrighteousness": 3437,
      "Every": 3438,
      "Ġâ²Ļâ²ıâ²§â²ī": 3439,
      "Ġwon": 3440,
      "ined": 3441,
      "Ï¥Ï£â²ģâ²Ľ": 3442,
      "ication": 3443,
      "ĠTeti": 3444,
      "mys": 3445,
      "Ġnumber": 3446,
      "Ġbd": 3447,
      "ĠHim": 3448,
      "Ġâ²Ľâ²Łâ²©â²ĥ": 3449,
      "::::::::": 3450,
      "ui": 3451,
      "Ġâ²§â²±â²Ľ": 3452,
      "Ġbirds": 3453,
      "Ġâ²īâ²ķ": 3454,
      "Ġêŀ½ry": 3455,
      "ĠÏ©â²ĵâ²ı": 3456,
      "Ġdelive": 3457,
      "vation": 3458,
      "ĠHoly": 3459,
      "Ġworthy": 3460,
      "icked": 3461,
      "Ġninet": 3462,
      "Ġmust": 3463,
      "Ġinter": 3464,
      "Ġbeg": 3465,
      "time": 3466,
      "Ġbreak": 3467,
      "ĠDjed": 3468,
      "Ġmultitud": 3469,
      "â²ģâ²£â²ĵ": 3470,
      "Ġseason": 3471,
      "Ġâ²īâ²§â²īâ²£â²ī": 3472,
      "Ġplaced": 3473,
      "ins": 3474,
      "ĠÏ©â²±â²Ľ": 3475,
      "?).": 3476,
      "ĠÏ«â²īâ²ķ": 3477,
      "Ġâ²ĳâ²£â²ī": 3478,
      "api": 3479,
      "ĠIt": 3480,
      "com": 3481,
      "Ġâ²ģâ²£â²ĵ": 3482,
      "Ġêŀ½wêľ£": 3483,
      "Ġtemples": 3484,
      "Ġscribes": 3485,
      "Ġâ²Ńâ²ıâ²Ļâ²ĵ": 3486,
      "Ġâ²¡â²£â²Łâ²«â²ıâ²§â²ıâ²¥": 3487,
      "mon": 3488,
      "maat": 3489,
      "ying": 3490,
      "â²Ľâ²ĳ": 3491,
      "Ġcur": 3492,
      "Ġiniqu": 3493,
      "Ġgêľ£": 3494,
      "ĠAr": 3495,
      "Ï£â²±â²¡â²ī": 3496,
      "Egypt": 3497,
      "Ġpay": 3498,
      "Ġpath": 3499,
      "asts": 3500,
      "ĠJuda": 3501,
      "rom": 3502,
      "ased": 3503,
      "Ġwrath": 3504,
      "ror": 3505,
      "ete": 3506,
      "â²§â²īâ²ĥ": 3507,
      "band": 3508,
      "These": 3509,
      "ressed": 3510,
      "Ġâ²Ľâ²ıâ²īâ²§": 3511,
      "Ġreport": 3512,
      "medi": 3513,
      "Ġleader": 3514,
      "she": 3515,
      "Ġwilt": 3516,
      "outhern": 3517,
      "Ġpassed": 3518,
      "Ġcleans": 3519,
      "Ġmagic": 3520,
      "Great": 3521,
      "fter": 3522,
      "smr": 3523,
      "Ġhn": 3524,
      "Ġdêľ£": 3525,
      "Ġá¹¯n": 3526,
      "Ġbarque": 3527,
      "ey": 3528,
      "osen": 3529,
      "Ġears": 3530,
      "Ġafflict": 3531,
      "Ġneigh": 3532,
      "cr": 3533,
      "sá¸ım": 3534,
      "Ġmrw": 3535,
      "Ġpossession": 3536,
      "Ġbreath": 3537,
      "Ġâ²īâ²Łâ²Łâ²©": 3538,
      "Ï«â²¡": 3539,
      "irm": 3540,
      "Ġdivine": 3541,
      "Ġhus": 3542,
      "Ġru": 3543,
      "Å¡s": 3544,
      "ept": 3545,
      "Ġalive": 3546,
      "Ġbless": 3547,
      "Amun": 3548,
      "Rto": 3549,
      "ĠÏ©â²±â²Łâ²©": 3550,
      "Ġâ²īâ²£â²Łâ²©â²±": 3551,
      "ictim": 3552,
      "Ġspell": 3553,
      "Ġdisciples": 3554,
      "Ġwá¸«êľ£": 3555,
      "Ġâ²¥â²ıâ²Łâ²©": 3556,
      "Ġêľ¥á¸ı": 3557,
      "Ġrespect": 3558,
      "qrs": 3559,
      "â²§â²Łâ²Ľ": 3560,
      "Ġsaved": 3561,
      "Ġregion": 3562,
      "za": 3563,
      "Ġdeliver": 3564,
      "ute": 3565,
      "Ġmeal": 3566,
      "ĠPe": 3567,
      "Ġâ²§â²ģÏ«": 3568,
      "mal": 3569,
      "Ġpati": 3570,
      "ater": 3571,
      "Ġlay": 3572,
      "iff": 3573,
      "Ġappoint": 3574,
      "\".": 3575,
      "sk": 3576,
      "â²Łâ²©â²£": 3577,
      "ĠÏ£â²§": 3578,
      "Ġ11": 3579,
      "â²£â²īÏ©": 3580,
      "chem": 3581,
      "Ġentered": 3582,
      "Ġmysteries": 3583,
      "Ġsacrifices": 3584,
      "Ġneighb": 3585,
      "Ġtong": 3586,
      "Ġwsá¸«": 3587,
      "Ġgreen": 3588,
      "Ġdesire": 3589,
      "cc": 3590,
      "Ġslaughter": 3591,
      "Ġsepar": 3592,
      "ĠÏ«â²Łâ²Ļ": 3593,
      "emale": 3594,
      "being": 3595,
      "athered": 3596,
      "Ġbelly": 3597,
      "Ġprin": 3598,
      "aim": 3599,
      "ĠYou": 3600,
      "Ġpyr": 3601,
      "ese": 3602,
      "Ġalone": 3603,
      "Ġpieces": 3604,
      "ĠChen": 3605,
      "Ġvessels": 3606,
      "Ġâ²±â²ĽÏ§": 3607,
      "namely": 3608,
      "chen": 3609,
      "Ġdire": 3610,
      "Ġdbn": 3611,
      "ĠÏ£â²īâ²Ļ": 3612,
      "â²ģâ²£â²±â²Ľ": 3613,
      "Ġpun": 3614,
      "ĠChnum": 3615,
      "onds": 3616,
      "ĠRamses": 3617,
      "wtêŀ½": 3618,
      "ĠÏ©â²ģâ²£": 3619,
      "ĠMen": 3620,
      "â²īâ²¥": 3621,
      "Ġdur": 3622,
      "ĠÏ©â²Łâ²©â²Ł": 3623,
      "Ġspd": 3624,
      "Ġsmall": 3625,
      "ĠÏ©â²ıâ²ıâ²§â²ī": 3626,
      "Ġâ²¥â²Ľâ²ģâ²©": 3627,
      "Ġdelivered": 3628,
      "Go": 3629,
      "ĠPer": 3630,
      "â²ĳâ²Ľâ²Łâ²¥": 3631,
      "ĠÏ£â²ģâ²£â²ī": 3632,
      "ully": 3633,
      "Ġâ²ĵâ²Łâ²©â²ĩâ²ģ": 3634,
      "Ġâ²Łâ²©â²±â²ĽÏ©": 3635,
      "Ġinhabit": 3636,
      "ser": 3637,
      "Ġâ²¡â²±â²§": 3638,
      "Ġwrong": 3639,
      "ager": 3640,
      "Ġpraised": 3641,
      "Ġâ²¥â²ģâ²£â²Ŀ": 3642,
      "cl": 3643,
      "dle": 3644,
      "whi": 3645,
      "Ġsá¸¥tp": 3646,
      "Ġwpw": 3647,
      "Ġmaking": 3648,
      "Ġâ²¡â²īâ²§Ï©": 3649,
      "â²ĥâ²ģ": 3650,
      "ĠPriest": 3651,
      "Ġvill": 3652,
      "Ġcrus": 3653,
      "ief": 3654,
      "Ġgover": 3655,
      "pyr": 3656,
      "ĠAchetaton": 3657,
      "Ġâ²Ļâ²ģâ²ĳâ²ıâ²§â²ıâ²¥": 3658,
      "Ġsalvation": 3659,
      "lc": 3660,
      "Ġill": 3661,
      "Ġtêŀ½": 3662,
      "Ï£â²ı": 3663,
      "Ġtreasure": 3664,
      "mediately": 3665,
      "Ġsomething": 3666,
      "Ġtoday": 3667,
      "Ï§â²īâ²Ļ": 3668,
      "ĠÏ©â²īâ²ĳâ²Ľâ²Łâ²¥": 3669,
      "Ġcubits": 3670,
      "ĠÏ«â²ĵâ²¥â²ī": 3671,
      "Ġwaters": 3672,
      "Ġfestival": 3673,
      "Ġâ²Ļâ²ĵ": 3674,
      "ĠWho": 3675,
      "Ġwatch": 3676,
      "emphis": 3677,
      "Ġsick": 3678,
      "Ġfin": 3679,
      "â²ĥâ²ıâ²¥": 3680,
      "iles": 3681,
      "ury": 3682,
      "Ġkings": 3683,
      "Ġrejoices": 3684,
      "Ġhêľ£": 3685,
      "venant": 3686,
      "ĠBab": 3687,
      "iegl": 3688,
      "Ġâ²Ľâ²ĳâ²ŁÏ¥": 3689,
      "Ġâ²¡â²Ĺ": 3690,
      "Ġgrg": 3691,
      "Ġâ²Ļâ²īâ²©â²ĵ": 3692,
      "Ġfallen": 3693,
      "After": 3694,
      "Ġbones": 3695,
      "Ġhur": 3696,
      "Ġá¸ıbêľ£": 3697,
      "trans": 3698,
      "â²ģâ²¥â²ĵâ²¥": 3699,
      "Ġsake": 3700,
      "Ġmnw": 3701,
      "â²Łâ²ĳ": 3702,
      "Ġzêľ£b": 3703,
      "Ġcontinu": 3704,
      "Ġcal": 3705,
      "Ġcond": 3706,
      "Ġâ²ģÏ©â²ī": 3707,
      "Ġâ²ģâ²ģâ²£â²±â²Ľ": 3708,
      "â²ķâ²Ĺ": 3709,
      "ĠÅ¡ns": 3710,
      "Ê¾w": 3711,
      "sêŀ½": 3712,
      "Ġwicked": 3713,
      "â²£â²±â²Łâ²©": 3714,
      "Ġheir": 3715,
      "Ġyours": 3716,
      "Ġhair": 3717,
      "Ġdrive": 3718,
      "neb": 3719,
      "Ġbear": 3720,
      "â²īâ²Ľâ²Łâ²¥": 3721,
      "Ġsanctuary": 3722,
      "Ġhusband": 3723,
      "gg": 3724,
      "ĠÏ«â²Łâ²Łâ²©": 3725,
      "Ġwithin": 3726,
      "Ġestabl": 3727,
      "Her": 3728,
      "Ġrealm": 3729,
      "â²ģâ²Ľâ²Łâ²ķ": 3730,
      "ĠâĢľ": 3731,
      "Ġgovern": 3732,
      "ĠÏ©â²Łâ²§â²ī": 3733,
      "aries": 3734,
      "arer": 3735,
      "Ġlimbs": 3736,
      "Ġcertain": 3737,
      "son": 3738,
      "Ġhill": 3739,
      "Ġâ²§â²±â²Łâ²©": 3740,
      "ĠIm": 3741,
      "Ġheads": 3742,
      "Ġtongue": 3743,
      "â²ķâ²ģÏ©": 3744,
      "Ġ25": 3745,
      "Ġsup": 3746,
      "â²Łâ²£â²§": 3747,
      "Ġâ²īâ²Ļâ²ģâ²§â²ī": 3748,
      "fer": 3749,
      "Ġá¸¥tr": 3750,
      "arm": 3751,
      "Å¡zp": 3752,
      "Ġchari": 3753,
      "Ġsteward": 3754,
      ".),": 3755,
      "ped": 3756,
      "Ġwt": 3757,
      "isen": 3758,
      "Ġâ²Łâ²©â²ıâ²ĥ": 3759,
      "Ï©â²ı": 3760,
      "Ġuse": 3761,
      "ĠÅ¡f": 3762,
      ",'": 3763,
      "Ġdied": 3764,
      "Ġgathered": 3765,
      "Ġâ²¡â²īâ²§â²Ľ": 3766,
      "Ġstep": 3767,
      "Ġâ²§â²īâ²Ľâ²Łâ²©": 3768,
      "Ġknowledge": 3769,
      "Ġâ²Łâ²©â²±Ï©": 3770,
      "hetepu": 3771,
      "ĠtÅ¡": 3772,
      "â²Łâ²ħ": 3773,
      "ĠÅ¡sp": 3774,
      "abric": 3775,
      "Ġtabern": 3776,
      "dj": 3777,
      "pher": 3778,
      "sÅ¡m": 3779,
      "Ġâ²ĥâ²Łâ²Ĺ": 3780,
      "Bez": 3781,
      "Ġjudge": 3782,
      "â²ģâ²£â²ģâ²±": 3783,
      "Say": 3784,
      "head": 3785,
      "Ġá¸«pÅ¡": 3786,
      "â²ĳâ²ī": 3787,
      "Ġdraw": 3788,
      "ĠFestival": 3789,
      "êŀ½z": 3790,
      "Ġâ²¡â²ĵâ²¥â²§": 3791,
      "Ġá¸¥sb": 3792,
      "Ġinheritance": 3793,
      "Ġlarge": 3794,
      "Ġâ²«â²ģâ²£â²ģâ²±": 3795,
      "Ġâ²ĳâ²ı": 3796,
      "ĠEgyptian": 3797,
      "Ġ30": 3798,
      "Ġattack": 3799,
      "zêľ£b": 3800,
      "Ġval": 3801,
      "Ġsná¸ı": 3802,
      "ĠÏ©â²ĵÏ«â²±": 3803,
      "ĠHatia": 3804,
      "Harachte": 3805,
      "ĠÏ©â²ĵâ²§â²Ľ": 3806,
      "Ġadd": 3807,
      "ek": 3808,
      "â²±â²£â²ī": 3809,
      "ĠâĢĵ": 3810,
      "Ġweak": 3811,
      "ĠThis": 3812,
      "â²Łâ²Łâ²¥": 3813,
      "Ġâ²±â²ĽÏ©": 3814,
      "Ġunclean": 3815,
      "ĠPadihor": 3816,
      "Ġá¸ıêľ£i": 3817,
      "êľ£bd": 3818,
      "li": 3819,
      "nific": 3820,
      "atti": 3821,
      "ooked": 3822,
      "Ġá¹¯êľ£z": 3823,
      "ĠMeren": 3824,
      "Ġêŀ½tr": 3825,
      "Ġâ²¡â²±": 3826,
      "Ġ...;": 3827,
      "Ġá¸¥mw": 3828,
      "Ġá¸¥wi": 3829,
      "â²Ľâ²Łâ²ĥâ²ī": 3830,
      "â²£â²ıâ²Ľâ²ı": 3831,
      "Ġâ²ķâ²§â²Ł": 3832,
      "owers": 3833,
      "sy": 3834,
      "ĠÏ£â²Łâ²Ļ": 3835,
      "â²ģâ²Ľâ²Łâ²¥": 3836,
      "â²±â²Łâ²©â²ĵ": 3837,
      "ĠMonth": 3838,
      "ĠSobek": 3839,
      "deben": 3840,
      "Ġnames": 3841,
      "Ġâ²¥â²ģÏ©": 3842,
      "Ġzmêľ£": 3843,
      "Ġbelie": 3844,
      "Ġâ²ķâ²±â²§â²ī": 3845,
      "ĠPharao": 3846,
      "Ġgates": 3847,
      "ĠFor": 3848,
      "â²īâ²©": 3849,
      "alth": 3850,
      "Ġesc": 3851,
      "iegler": 3852,
      "Ġsand": 3853,
      "ĠMost": 3854,
      "priest": 3855,
      "Ġfoot": 3856,
      "Ġhearken": 3857,
      "arnak": 3858,
      "Ġá¸«wi": 3859,
      "fraid": 3860,
      "ĠThou": 3861,
      "Ġêŀ½yi": 3862,
      "Ġâ²Ľâ²ĳâ²±â²§â²īâ²Ľ": 3863,
      "Ġmultitude": 3864,
      "Hor": 3865,
      "ining": 3866,
      "Ġcoll": 3867,
      "ĠChatti": 3868,
      "ĠÏ©â²ĵÏ«â²Ļ": 3869,
      "êŀ½yi": 3870,
      "ving": 3871,
      "Ġbattle": 3872,
      "fru": 3873,
      "â²Łâ²Ľâ²ĵ": 3874,
      "Ġsurround": 3875,
      "Ġve": 3876,
      "Ġob": 3877,
      "Ġafraid": 3878,
      "â²ĥâ²Łâ²Ĺâ²ı": 3879,
      "ĠNes": 3880,
      "Ġborder": 3881,
      "Ġsouthern": 3882,
      "ify": 3883,
      "Ġloc": 3884,
      "Ġthousands": 3885,
      "suck": 3886,
      "Ġâ²¥â²Łâ²§": 3887,
      "Ġâ²Ľâ²īÏ©": 3888,
      "ement": 3889,
      "Ġsure": 3890,
      "Ġmnêŀ½": 3891,
      "Ġregard": 3892,
      "â²īâ²ĳâ²ĥâ²ī": 3893,
      "nêľ£y": 3894,
      "Ġkmy": 3895,
      "ĠMemphis": 3896,
      "Ġâ²ĽÏ§â²£â²ıâ²ĵ": 3897,
      "Ġasked": 3898,
      "nificent": 3899,
      "ipped": 3900,
      "md": 3901,
      "áĲ": 3902,
      "ĠáĲ": 3903,
      "Ġsound": 3904,
      "Ġá¸¥mt": 3905,
      "Ġâ²Łâ²£": 3906,
      "manent": 3907,
      "ĠáĲħ": 3908,
      "lw": 3909,
      "Ġnose": 3910,
      "Ġbook": 3911,
      "orrow": 3912,
      "Ġâ²Ļâ²ģâ²©": 3913,
      "Ġinside": 3914,
      "wêľ£á¸¥": 3915,
      "Ġblack": 3916,
      "Ġserpent": 3917,
      "â²ŁÏ¯": 3918,
      "â²«â²£": 3919,
      "â²Łâ²©â²¥â²ģâ²Ĺâ²ıâ²Ļ": 3920,
      "â²īâ²£â²Łâ²©â²¥â²ģâ²Ĺâ²ıâ²Ļ": 3921,
      "Ġpatient": 3922,
      "ĠHigh": 3923,
      "ĠSam": 3924,
      "Ġshepher": 3925,
      "Ġtransg": 3926,
      "ĠMerenre": 3927,
      "má¸ıêľ£": 3928,
      "Ġêŀ½êŀ½": 3929,
      "ĠKarnak": 3930,
      "Ġâ²Ľâ²§â²Łâ²Łâ²§": 3931,
      "Ġsold": 3932,
      "ĠÏ©â²Ļâ²Łâ²Łâ²¥": 3933,
      "\").": 3934,
      "Ġâ²īâ²ĥ": 3935,
      "â²§â²±â²£": 3936,
      "Ġfabric": 3937,
      "Ġâ²ģâ²©": 3938,
      "ady": 3939,
      "Ġfrag": 3940,
      "cheper": 3941,
      "Ġcared": 3942,
      "ocod": 3943,
      "Ġclothing": 3944,
      "har": 3945,
      "mná¸«": 3946,
      "Ġá¸¥p": 3947,
      "Ġinv": 3948,
      "Ġâ²Ļâ²¡â²īâ²£": 3949,
      "Ġsuffering": 3950,
      "after": 3951,
      "King": 3952,
      "erness": 3953,
      "ĠÏ£â²Ļ": 3954,
      "Ġanger": 3955,
      "Ġglad": 3956,
      "Ġpresent": 3957,
      "Ġwilderness": 3958,
      "â²Łâ²©â²ī": 3959,
      "Ġá¸«f": 3960,
      "â²īâ²ĵâ²Ľ": 3961,
      "abaster": 3962,
      "Ġâ²Ľâ²§â²Łâ²§": 3963,
      "Ġserve": 3964,
      "Ġinhabitants": 3965,
      "Ne": 3966,
      "ptr": 3967,
      "ÏŃâ²Łâ²Ļ": 3968,
      "â²£â²ĵâ²§": 3969,
      "Ġtabernacle": 3970,
      "Ġêľ¥w": 3971,
      "Ġmem": 3972,
      "Ġâ²«â²ģ": 3973,
      "ĠDu": 3974,
      "Isis": 3975,
      "Ġdeparted": 3976,
      "êŀ½rÊ¾": 3977,
      "Ġâ²§â²ģâ²Ļâ²Ł": 3978,
      "Ġimp": 3979,
      "Ġmiddle": 3980,
      "resn": 3981,
      "êľ¥Å¡": 3982,
      "Ġfle": 3983,
      "Ġforg": 3984,
      "aker": 3985,
      "Ġadvers": 3986,
      "Ġraise": 3987,
      "unt": 3988,
      "Day": 3989,
      "â²£â²Ļ": 3990,
      "Ġsees": 3991,
      "wêľ£á¸ı": 3992,
      "Ġskin": 3993,
      "Ġfoundation": 3994,
      "Ġâ²ģâ²ħâ²ģâ²ĳ": 3995,
      "Ġteach": 3996,
      "Ġnone": 3997,
      "Ġfêľ£i": 3998,
      "Ġeastern": 3999,
      "Ġwrite": 4000,
      "Ġspend": 4001,
      "ĠBehold": 4002,
      "erous": 4003,
      "eness": 4004,
      "Ġcir": 4005,
      "ĠÅ¡b": 4006,
      "ĠBut": 4007,
      "ohn": 4008,
      "ange": 4009,
      "oda": 4010,
      "Ġspread": 4011,
      "Ġâ²±â²Łâ²©": 4012,
      "ĠPhil": 4013,
      "Ġdistrict": 4014,
      "Ġprinces": 4015,
      "ĠYear": 4016,
      "Ġtur": 4017,
      "Ġbêŀ½n": 4018,
      "Ġlon": 4019,
      "chu": 4020,
      "ĠÏ©â²ĵâ²īâ²£â²Łâ²©â²¥â²ģâ²Ĺâ²ıâ²Ļ": 4021,
      "Ġâ²Ńâ²£â²±â²Ļ": 4022,
      "resnet": 4023,
      "dd": 4024,
      "mrw": 4025,
      "Ġwish": 4026,
      "á¸¥b": 4027,
      "Ġfree": 4028,
      "Ġcow": 4029,
      "?),": 4030,
      "Ġâ²§â²ģâ²¥": 4031,
      "From": 4032,
      "No": 4033,
      "Ġ16": 4034,
      "ention": 4035,
      "ĠSaul": 4036,
      "wnm": 4037,
      "ineness": 4038,
      "ĠHerm": 4039,
      "Ġmessage": 4040,
      "â²īâ²§â²ī": 4041,
      "Ġpast": 4042,
      "Ġâ²Łâ²©â²§": 4043,
      "ghorn": 4044,
      "acrif": 4045,
      "Ġalong": 4046,
      "Ġfemale": 4047,
      "ĠSop": 4048,
      "â²īâ²§â²ĥâ²ī": 4049,
      "Ġcross": 4050,
      "Ġsouls": 4051,
      "erings": 4052,
      "Ġâ²¥â²«": 4053,
      "Ġlie": 4054,
      "Ġâ²ĵâ²¥â²Ĺ": 4055,
      "Ġâ²«â²ıâ²īâ²§": 4056,
      "ĠÏŃâ²±Ï£â²§": 4057,
      "Ġpyramid": 4058,
      "Ġmour": 4059,
      "Ġmind": 4060,
      "Ġrub": 4061,
      "Ġcried": 4062,
      "Ġá¸¥fêľ£": 4063,
      "edj": 4064,
      "thren": 4065,
      "Ġâ²ĳâ²ģâ²Ļâ²ĵâ²Ł": 4066,
      "Ġâ²Ļâ²īâ²ĳâ²Ļâ²ıâ²ĵ": 4067,
      "Ġreal": 4068,
      "â²ģâ²Ĺâ²ģ": 4069,
      "Ġperish": 4070,
      "sbk": 4071,
      "Ġêŀ½qr": 4072,
      "á¹¯z": 4073,
      "nty": 4074,
      "Ġdocum": 4075,
      "Ġvictim": 4076,
      "Ġunited": 4077,
      "Ġbrethren": 4078,
      "Ġeldest": 4079,
      "Ġwheat": 4080,
      "Ġfill": 4081,
      "Ġcop": 4082,
      "Ġâ²¥Ï§": 4083,
      "â²¡â²Łâ²¥": 4084,
      "ĠTe": 4085,
      "ained": 4086,
      "Ġarr": 4087,
      "Ġtrust": 4088,
      "Ġremove": 4089,
      "Ġpraises": 4090,
      "Ġmessen": 4091,
      "Ġexalted": 4092,
      "â²Ľâ²Łâ²Łâ²©": 4093,
      "êľ¥êľ¥": 4094,
      "Ġâ²¡â²ģÏ©": 4095,
      "Ġdom": 4096,
      "ĠSes": 4097,
      "Ġstanding": 4098,
      "Ġexcept": 4099,
      "â²ıâ²«": 4100,
      "â²¥â²ģÏ©": 4101,
      "Ġheavens": 4102,
      "Ġcarried": 4103,
      "Ġrepe": 4104,
      "________": 4105,
      "db": 4106,
      "erable": 4107,
      "ĠIbi": 4108,
      "ĠSem": 4109,
      "Ġgolden": 4110,
      "Ġfalcon": 4111,
      "du": 4112,
      "sic": 4113,
      "â²Ľâ²ıâ²¥": 4114,
      "Ġbound": 4115,
      "Ġinj": 4116,
      "ĠGBez": 4117,
      "Ġallow": 4118,
      "Ġdoors": 4119,
      "Ġâ²§â²ģâ²¡": 4120,
      "deed": 4121,
      "â²ıâ²ķâ²ı": 4122,
      "Ġdirect": 4123,
      "á¸«êľ¥i": 4124,
      "Ġâ²¥â²±â²Łâ²©â²Ľ": 4125,
      "â²ĥâ²§": 4126,
      "ets": 4127,
      "Ġalabaster": 4128,
      "ware": 4129,
      "Ġâ²¥â²Łâ²ĥ": 4130,
      "Ġappearance": 4131,
      "ts": 4132,
      "uven": 4133,
      "Ġ|": 4134,
      "Ġâ²Ļâ²ıÏ¯": 4135,
      "Ġrises": 4136,
      "Ġâ²§â²±â²ĥ": 4137,
      "Ġâ²ķâ²Łâ²©": 4138,
      "â²Łâ²Ľâ²Łâ²¥": 4139,
      "ular": 4140,
      "rence": 4141,
      "Ġâ²ĥâ²±â²Ĺ": 4142,
      "hhhhhhhhhhhhhhhh": 4143,
      "/'": 4144,
      "Pr": 4145,
      "Ġêŀ½h": 4146,
      "Ġitself": 4147,
      "ĠÏ©â²īâ²Ļ": 4148,
      "ĠÏ©â²ģâ²£â²īÏ©": 4149,
      "Ġspeaks": 4150,
      "overed": 4151,
      "Ġanimal": 4152,
      "Ġdmá¸ı": 4153,
      "Ġindeed": 4154,
      "ĠÏ©â²ĵâ²±": 4155,
      "Ġâ²ģâ²Ľâ²Łâ²Ľ": 4156,
      "ĠUser": 4157,
      "Ġâ²ķâ²ıâ²Ļâ²ī": 4158,
      "â²Łâ²ı": 4159,
      "Ġâ²īâ²Ĺ": 4160,
      "â²£â²ģâ²§": 4161,
      "Ġrob": 4162,
      "Ġflour": 4163,
      "Ġâ²ģâ²Ļâ²ģÏ©": 4164,
      "Ġbnêŀ½": 4165,
      "Ï©â²ģâ²¡": 4166,
      "Ġjo": 4167,
      "Vso": 4168,
      "ges": 4169,
      "Ġhost": 4170,
      "Ġâ²ķâ²Łâ²©â²ĵ": 4171,
      "Ġ14": 4172,
      "ĠÏ©â²ĥâ²ıâ²©â²ī": 4173,
      "á¸«wi": 4174,
      "Ġpros": 4175,
      "ĠWe": 4176,
      "ĠÏ£â²īâ²īâ²£â²ī": 4177,
      "Ġcovenant": 4178,
      "\"\"\"\"\"\"\"\"": 4179,
      "Ġ#": 4180,
      "semb": 4181,
      "Ġstill": 4182,
      "uly": 4183,
      "aches": 4184,
      "Ġoutside": 4185,
      "oken": 4186,
      "ylon": 4187,
      "light": 4188,
      "Ġâ²īÏ£": 4189,
      "â²Ļâ²Łâ²©": 4190,
      "Ġder": 4191,
      "gan": 4192,
      "Why": 4193,
      "â²Ļâ²¡â²£": 4194,
      "Ġrwá¸ı": 4195,
      "â²Ļâ²±â²Ľ": 4196,
      "ĠGold": 4197,
      "Ġbrings": 4198,
      "rug": 4199,
      "Ġimmediately": 4200,
      "Ġâ²¥â²Ľâ²ıâ²Łâ²©": 4201,
      "Ġlooked": 4202,
      "ixed": 4203,
      "Ġanointed": 4204,
      "lessed": 4205,
      "mighty": 4206,
      "Ġrêľ£": 4207,
      "Ġgreet": 4208,
      "Ġweep": 4209,
      "igned": 4210,
      "Ġhappen": 4211,
      "Ġofficial": 4212,
      "Ġyourselves": 4213,
      "ĠMan": 4214,
      "Ġâ²Ľâ²īâ²Ļâ²±": 4215,
      "Ġwisdom": 4216,
      "Ġemer": 4217,
      "aked": 4218,
      "Ġorders": 4219,
      "Ġâ²ģâ²£â²īÏ©": 4220,
      "Ġanswer": 4221,
      "Ġmass": 4222,
      "Ġá¹¯á¸¥n": 4223,
      "têľ£y": 4224,
      "Ġeveryone": 4225,
      "itting": 4226,
      "Ġnumerous": 4227,
      "ev": 4228,
      "Ġsim": 4229,
      "Ï£â²Łâ²©": 4230,
      "ĠSiegler": 4231,
      "Ġgoddesses": 4232,
      "rrh": 4233,
      "Ġâ²ĩâ²ĵâ²ģâ²ĳ": 4234,
      "With": 4235,
      "oat": 4236,
      "Ġox": 4237,
      "Ġmale": 4238,
      "Ġâ²¡â²©â²Ĺâ²ı": 4239,
      "â²ıÏ£â²ī": 4240,
      "â²Ļâ²ģâ²£": 4241,
      "Ġlab": 4242,
      "Ġarea": 4243,
      "Ġfragrance": 4244,
      "kau": 4245,
      "Ġpt": 4246,
      "Ġrdi": 4247,
      "Ġgather": 4248,
      "Ġâ²ĵâ²±â²¥": 4249,
      "Ġâ²£â²īâ²Ļ": 4250,
      "ppy": 4251,
      "Ġmanager": 4252,
      "Ġknew": 4253,
      "aughters": 4254,
      "Ġná¸¥b": 4255,
      "ben": 4256,
      "Ġsum": 4257,
      "Ġphy": 4258,
      "Ġfirm": 4259,
      "imin": 4260,
      "Ġstay": 4261,
      "Ġáºĸnw": 4262,
      "ours": 4263,
      "soever": 4264,
      "Ġrecite": 4265,
      "Ã¶rt": 4266,
      "Ġsuperv": 4267,
      "ias": 4268,
      "má¹¯": 4269,
      "Ġmis": 4270,
      "Ġreason": 4271,
      "ĠSokar": 4272,
      "Ġgiving": 4273,
      "Ġbeauty": 4274,
      "Ġâ²Łâ²īâ²ĵ": 4275,
      "Ġair": 4276,
      "â²§â²ģ": 4277,
      "á¸ıêŀ½": 4278,
      "Ġâ²¡â²īâ²§â²īâ²Ľ": 4279,
      "key": 4280,
      "Ġappointed": 4281,
      "aft": 4282,
      "qa": 4283,
      "Ġsá¸¥n": 4284,
      "Ġmêľ£w": 4285,
      "á¸«nsw": 4286,
      "Ġâ²Łâ²©â²Łâ²Ļ": 4287,
      "â²¥â²ĥâ²±": 4288,
      "Ġled": 4289,
      "â²©â²Ļ": 4290,
      "ĠGood": 4291,
      "Ġlover": 4292,
      "Ġblind": 4293,
      "Ġcontent": 4294,
      "Aton": 4295,
      "Ġhelp": 4296,
      "10": 4297,
      "nh": 4298,
      "Ġage": 4299,
      "Ġwid": 4300,
      "Ï«â²Ł": 4301,
      "Ġêľ¥á¸¥": 4302,
      "Ġupper": 4303,
      "ready": 4304,
      "acht": 4305,
      "Ġremoved": 4306,
      "Ġperfection": 4307,
      "ĠPadihorresnet": 4308,
      "Ġâ²ĩâ²ĵâ²ģâ²ĳâ²ıâ²ķâ²ı": 4309,
      "Ã¶rtl": 4310,
      "Ġbus": 4311,
      "idence": 4312,
      "ntf": 4313,
      "ĠÏŃâ²Ļ": 4314,
      "Ġwealth": 4315,
      "Ġ(?):": 4316,
      "Ġtwy": 4317,
      "Ġâ²¥â²ģâ²Łâ²©â²Ĺ": 4318,
      "â²Ļâ²īâ²ĳâ²£â²ī": 4319,
      "ĠHetep": 4320,
      "Ph": 4321,
      "â²¯": 4322,
      "Ġmá¸ı": 4323,
      "ĠdÅ¡r": 4324,
      "Ġâ²ģâ²ĩ": 4325,
      "Ġâ²§â²£": 4326,
      "Ġlif": 4327,
      "umin": 4328,
      "Ġrejuven": 4329,
      "ĠMeri": 4330,
      "ĠHoros": 4331,
      "Ġprepare": 4332,
      "wÃ¶rtl": 4333,
      "êľ¥y": 4334,
      "ĠSec": 4335,
      "ĠÏ§â²ģâ²§": 4336,
      "Ġâ²ģâ²Ľâ²Łâ²Ļâ²ĵâ²ģ": 4337,
      "Ġvine": 4338,
      "orthern": 4339,
      "â²Łâ²Łâ²Ĺ": 4340,
      "Ġexceeding": 4341,
      "ariant": 4342,
      "Ġbright": 4343,
      "Ġhun": 4344,
      "enet": 4345,
      "Ï©â²īâ²Ľ": 4346,
      "etime": 4347,
      "ĠÏ£â²īâ²£â²ĵ": 4348,
      "fully": 4349,
      "ĠHeaven": 4350,
      "Ġgifts": 4351,
      "Maat": 4352,
      "Rem": 4353,
      "Ġoh": 4354,
      "Ġabund": 4355,
      "á¸«rp": 4356,
      "â²Łâ²ķÏ©": 4357,
      "Ġperform": 4358,
      "Ġprevent": 4359,
      "Ġâ²§â²ģâ²¥â²ĳâ²Ł": 4360,
      "Because": 4361,
      "Ġhp": 4362,
      "Ï£â²īâ²Ľ": 4363,
      "Ġreached": 4364,
      "ntk": 4365,
      "ĠAha": 4366,
      "Ġdestruction": 4367,
      "â²¡â²ıâ²£â²ī": 4368,
      "Ġswt": 4369,
      "Ġcave": 4370,
      "Ġoath": 4371,
      "Ġds": 4372,
      "ĠÏ£â²«": 4373,
      "ĠNub": 4374,
      "ourage": 4375,
      "Ġoffice": 4376,
      "Ġquar": 4377,
      "Ġshrine": 4378,
      "pyrus": 4379,
      "we": 4380,
      "ising": 4381,
      "êľ¥á¸ı": 4382,
      "Ġcamp": 4383,
      "ash": 4384,
      "Ġá¸ıfêľ£": 4385,
      "Ġ21": 4386,
      "oseph": 4387,
      "Ï§â²īâ²Ľ": 4388,
      "achmet": 4389,
      "â²Ľâ²ģâ²ħ": 4390,
      "Ġâ²Ļâ²ıâ²ıÏ£â²ī": 4391,
      "Ġâ²£â²Łâ²Ļâ²¡â²ī": 4392,
      "Ġprepared": 4393,
      "Recitation": 4394,
      "power": 4395,
      "Ġtalk": 4396,
      "arth": 4397,
      "ĠÏ¥â²±": 4398,
      "Ġá¸ıá¸¥wty": 4399,
      "Ġ17": 4400,
      "â²ģâ²Ľâ²Ľâ²ıâ²¥": 4401,
      "cript": 4402,
      "oving": 4403,
      "Ġâ²Łâ²©â²Łâ²ĽÏ©": 4404,
      "Ġâ²ģâ²£â²Ńâ²ı": 4405,
      "yyyy": 4406,
      "Ġcrushed": 4407,
      "Ġdocument": 4408,
      "fast": 4409,
      "psi": 4410,
      "Ġêŀ½êľ¥": 4411,
      "Ġmeet": 4412,
      "Ġâ²īâ²£â²ıâ²©": 4413,
      "Ġâ²«â²©â²Ĺâ²ı": 4414,
      "urther": 4415,
      "Ġthought": 4416,
      "Ġâ²Ļâ²Ľâ²Ľ": 4417,
      "Ġâ²ĳâ²©â²¥": 4418,
      "Ġsmêľ£êľ¥": 4419,
      "á¸¥êľ¥i": 4420,
      "place": 4421,
      "phant": 4422,
      "Ġfingers": 4423,
      "ĠÏ«â²īâ²ķâ²ģâ²¥": 4424,
      "transfigured": 4425,
      "Ġlonghorn": 4426,
      "Says": 4427,
      "most": 4428,
      "tj": 4429,
      "Ġsá¸¥": 4430,
      "Ġdaughters": 4431,
      "Ġreach": 4432,
      "ears": 4433,
      "Ġâ²£Ï©â²Łâ²§â²ī": 4434,
      "By": 4435,
      "sá¹¯êľ£": 4436,
      "â²Ļâ²īâ²Ľ": 4437,
      "Ġá¸¥kn": 4438,
      "Ġbroken": 4439,
      "Ġutterly": 4440,
      "ĠBabylon": 4441,
      "Ġlifetime": 4442,
      "Ġwings": 4443,
      "Ġâ²ģâ²ĵâ²§": 4444,
      "â²Łâ²©â²ģ": 4445,
      "ifest": 4446,
      "Ġâ²¥â²ģâ²ĥâ²Łâ²Ĺ": 4447,
      "ĠÏ©â²ĥâ²ıâ²Łâ²©â²ĵ": 4448,
      "Ye": 4449,
      "Ġrun": 4450,
      "Ġá¸¥nk": 4451,
      "Those": 4452,
      "Ġelder": 4453,
      "Ġreading": 4454,
      "Ġterror": 4455,
      "more": 4456,
      "eter": 4457,
      "Ġanyone": 4458,
      "Ġwherein": 4459,
      ")!\"": 4460,
      "aff": 4461,
      "Ġtou": 4462,
      "Ġâ²¡â²Łâ²£": 4463,
      "ĠÏ£â²Ł": 4464,
      "Ġrev": 4465,
      "Ġâ²£â²Ļ": 4466,
      "ĠFirst": 4467,
      "Ġungod": 4468,
      "Ġproper": 4469,
      "Ġfruits": 4470,
      "Per": 4471,
      "ffect": 4472,
      "wise": 4473,
      "reg": 4474,
      "Ġbes": 4475,
      "Ġfast": 4476,
      "ĠHapi": 4477,
      "ĠSt": 4478,
      "Ġ22": 4479,
      "ĠWhat": 4480,
      "ĠÏ«â²Łâ²¥": 4481,
      "imon": 4482,
      "Ġá¹¯z": 4483,
      "ĠÅ¡rêŀ½": 4484,
      "Ġfamily": 4485,
      "Ġexceedingly": 4486,
      "ues": 4487,
      "Ġrich": 4488,
      "ĠÏ©â²ģÏ©": 4489,
      "Ġbeat": 4490,
      "Ġêľ¥pr": 4491,
      "Ġqêľ£i": 4492,
      "Ġâ²ķâ²ģâ²ķâ²ī": 4493,
      "Ġá¸¥nw": 4494,
      "ĠIf": 4495,
      "Ġâ²£â²ı": 4496,
      "ĠzÅ¡": 4497,
      "ĠÏŃâ²±â²Ľâ²§": 4498,
      "Ġpriestess": 4499,
      "ĠThoth": 4500,
      "Ġâ²¥â²±â²§â²ıâ²£": 4501,
      "Ġangry": 4502,
      "Pl": 4503,
      "ye": 4504,
      "itual": 4505,
      "Ġqr": 4506,
      "ĠJoseph": 4507,
      "Ġcontr": 4508,
      "Ġenc": 4509,
      "Ġâ²¡â²ĵâ²¥â²§â²ĵâ²¥": 4510,
      "uck": 4511,
      "â²ĵâ²Łâ²Ľ": 4512,
      "Ġâ²ĵâ²Łâ²Ļ": 4513,
      "Ġordered": 4514,
      "Ï©â²ŁÏ¯": 4515,
      "Ġâ²¥â²ķâ²©â²Ľâ²ı": 4516,
      "Ġoint": 4517,
      "ĠÏ©â²īâ²ĵ": 4518,
      "Ġ13": 4519,
      "ĠNemti": 4520,
      "ĠÏ¯â²Ľâ²Łâ²©": 4521,
      "Ġopens": 4522,
      "\"...": 4523,
      "êŀ½tm": 4524,
      "Ġlake": 4525,
      "iving": 4526,
      "ulf": 4527,
      "Ġsett": 4528,
      "ĠÅ¡nêľ¥": 4529,
      "Ġpossessions": 4530,
      "maatre": 4531,
      "ĠThey": 4532,
      "â²ĵâ²Ĺâ²ĵ": 4533,
      "â²±â²ĳ": 4534,
      "Ġdm": 4535,
      "Ġshore": 4536,
      "ĠNecropolis": 4537,
      "cheperu": 4538,
      "hb": 4539,
      "Ġfaces": 4540,
      "â²ĥÏ£": 4541,
      "ality": 4542,
      "ĠAl": 4543,
      "Ġmeasure": 4544,
      "ized": 4545,
      "ruct": 4546,
      "ĠApa": 4547,
      "ĠPete": 4548,
      "â²Ľâ²ģâ²ħâ²±": 4549,
      "Ġcol": 4550,
      "Ġgb": 4551,
      "omes": 4552,
      "ĠÅ¡wi": 4553,
      "Ġmemb": 4554,
      "Ġâ²ıâ²£â²¡": 4555,
      "Ġcloud": 4556,
      "Ġâ²§â²±â²ĥÏ©": 4557,
      "Ġbite": 4558,
      "Ġêŀ½wt": 4559,
      "ĠÏ£â²ģâ²Ľ": 4560,
      "Ġund": 4561,
      "Ġstars": 4562,
      "Ġâ²īâ²£Ï©": 4563,
      "ĠJohn": 4564,
      "Ġâ²Ļâ²Ľâ²§â²£â²£â²Ł": 4565,
      "Ġpunish": 4566,
      "ĠÏ©â²īâ²Ļâ²¥â²ĵ": 4567,
      "Ġant": 4568,
      "Ġba": 4569,
      "Ġlest": 4570,
      "ĠÏ«â²Łâ²©": 4571,
      "ĠÏ£â²Ĺâ²ıâ²Ĺ": 4572,
      "Ġâ²£â²Ł": 4573,
      "ĠPsen": 4574,
      "hether": 4575,
      "Ġcrocod": 4576,
      "Ġêľ¥rq": 4577,
      "otten": 4578,
      "etjer": 4579,
      "Ġcounsel": 4580,
      "Pra": 4581,
      "Ġmin": 4582,
      "Ġpill": 4583,
      "Ġâ²Ļâ²Łâ²©â²Ľ": 4584,
      "edy": 4585,
      "Ġwrit": 4586,
      "Ġâ²±â²£": 4587,
      "Ġmembers": 4588,
      "pu": 4589,
      "Ġsêľ¥á¸¥": 4590,
      "Ġsoda": 4591,
      "Ġcooked": 4592,
      "Ġâ²§â²¥": 4593,
      "Ġprof": 4594,
      "Ġzmy": 4595,
      "ophet": 4596,
      "Ġâ²§â²ģâ²Ļâ²ĵâ²Ł": 4597,
      "Ġâ²ĥâ²ī": 4598,
      "â²ģâ²Ĺâ²ģâ²¥": 4599,
      "Ġprophets": 4600,
      "airs": 4601,
      "Ġâ²Ļâ²Łâ²Ľ": 4602,
      "â²ıâ²Ļâ²ģ": 4603,
      "Ġdbá¸¥": 4604,
      "ĠCr": 4605,
      "Ġtro": 4606,
      "nÊ¾": 4607,
      "ná¸¥m": 4608,
      "wh": 4609,
      "ĠÅ¡d": 4610,
      "ĠMes": 4611,
      "elf": 4612,
      "ĠEle": 4613,
      "Ġchap": 4614,
      "Ġarri": 4615,
      "ĠDe": 4616,
      "Ġfigure": 4617,
      "ĠÏ«â²ģÏ«â²ī": 4618,
      "Ġboy": 4619,
      "Ġeffect": 4620,
      "â²Ĺâ²Łâ²Ľ": 4621,
      "Ġâ²£â²ģâ²¥": 4622,
      "ility": 4623,
      "emple": 4624,
      "Ġá¸¥êľ¥êľ¥": 4625,
      "Ġdoesn": 4626,
      "Ġfollows": 4627,
      ",âĢĿ": 4628,
      "again": 4629,
      "â²ıâ²Ļâ²Łâ²¥": 4630,
      "Ġpêľ£êŀ½": 4631,
      "iled": 4632,
      "Ġordin": 4633,
      "â²©â²Ĺâ²±â²Ľ": 4634,
      "Ġâ²Łâ²©â²±Ï£â²ĥ": 4635,
      "because": 4636,
      "Ã¼": 4637,
      "hem": 4638,
      "ĠNile": 4639,
      "ĠRa": 4640,
      "Ġprotects": 4641,
      "Ġprotected": 4642,
      "â²ĵâ²§â²ıâ²¥": 4643,
      "worship": 4644,
      "ssss": 4645,
      "Jesus": 4646,
      "spr": 4647,
      "êŀ½êľ£b": 4648,
      "Ġpá¸ı": 4649,
      "Ġfail": 4650,
      "Ġdouble": 4651,
      "Ġlot": 4652,
      "Ġchosen": 4653,
      "Ġbowl": 4654,
      "Bringing": 4655,
      "Ġuseful": 4656,
      "â²Łâ²Łâ²Ĺâ²ī": 4657,
      "oab": 4658,
      "Ġtreat": 4659,
      "Ġpop": 4660,
      "Ġarise": 4661,
      "Ġâ²±â²Ĺâ²ĵ": 4662,
      "bered": 4663,
      "Ġlegs": 4664,
      "ength": 4665,
      "Ġmyrrh": 4666,
      "Ġ24": 4667,
      "resp": 4668,
      "Ġmanifest": 4669,
      "Ġreturned": 4670,
      "Ġburnt": 4671,
      "Ġwdn": 4672,
      "Ġâ²ķâ²Łâ²©Ï«â²ĵ": 4673,
      "Of": 4674,
      "Ġver": 4675,
      "Ġmoon": 4676,
      "Ġbri": 4677,
      "Ġins": 4678,
      "ĠÏ«â²±â²Ľâ²§": 4679,
      "Ġêľ¥êŀ½": 4680,
      "Ġknife": 4681,
      "Ġwá¸ıêľ¥": 4682,
      "nut": 4683,
      "Ġ?": 4684,
      "Ġpain": 4685,
      "Ġpiece": 4686,
      "Ġdêŀ½": 4687,
      "Ġdiff": 4688,
      "itted": 4689,
      "Ġstands": 4690,
      "Ġquest": 4691,
      "Ġstatue": 4692,
      "'!\"": 4693,
      "ires": 4694,
      "ttêŀ½": 4695,
      "Ġâ²īâ²¡â²ĵ": 4696,
      "Å¡nêŀ½": 4697,
      "alley": 4698,
      "Ġspêľ£": 4699,
      "Ġgoose": 4700,
      "Ġâ²ĳâ²ī": 4701,
      "Ġâ²ĳâ²ĥ": 4702,
      "ĠWadj": 4703,
      "Ġâ²¥â²©â²Ľâ²ģâ²ħâ²±": 4704,
      "â²ģâ²Ĺâ²ģâ²¥â²¥â²ģ": 4705,
      "HE": 4706,
      "bers": 4707,
      "gmi": 4708,
      "â²ģâ²§â²ī": 4709,
      "Ġmom": 4710,
      "oub": 4711,
      "ĠÏ©â²ĵâ²¥â²ī": 4712,
      "ĠÏ©â²ĵÏ«â²Ľ": 4713,
      "Ġrepent": 4714,
      "Ġâ²¥â²©â²Ľâ²ģâ²ħâ²±â²ħâ²ı": 4715,
      "now": 4716,
      "wa": 4717,
      "â²īâ²ĵâ²§": 4718,
      "â²ıâ²£â²Łâ²¥": 4719,
      "â²Ļâ²ģâ²Ł": 4720,
      "ĠTjy": 4721,
      "Ġwá¸¥êľ¥": 4722,
      "ĠmÊ¾w": 4723,
      "Ġpit": 4724,
      "ĠpÅ¡": 4725,
      "Å¡di": 4726,
      "Ġstate": 4727,
      "ĠMother": 4728,
      "Ġseat": 4729,
      "Ġcrow": 4730,
      "â²¥â²īâ²ĥâ²ıâ²¥": 4731,
      "Ġâ²Łâ²©â²Ľâ²ŁÏ¥": 4732,
      "Ġmonum": 4733,
      "Ġcompanion": 4734,
      "ae": 4735,
      "cense": 4736,
      "Ġtired": 4737,
      "Ġâ²Ľâ²ŁÏ«": 4738,
      "Ġvis": 4739,
      "Ġused": 4740,
      "Ġparts": 4741,
      "Ġâ²ģâ²¡â²ģ": 4742,
      "Phara": 4743,
      "Ġmoment": 4744,
      "ĠÏ£â²ģÏ©": 4745,
      "ution": 4746,
      "Ġassemb": 4747,
      "ĠÏŃâ²ĵâ²Ľ": 4748,
      "ĠEx": 4749,
      "Ġá¸¥êľ¥pêŀ½": 4750,
      "Ġbiol": 4751,
      "ĠOn": 4752,
      "ĠChons": 4753,
      "Ġeternally": 4754,
      "Ġelders": 4755,
      "Ġâ²ķâ²Ĺâ²ıâ²£â²Łâ²Ľâ²Łâ²Ļâ²ĵâ²ģ": 4756,
      "Ġâ²ĵâ²±â²¥â²ıâ²«": 4757,
      "Ġbiolog": 4758,
      "awn": 4759,
      "piece": 4760,
      "Ï«â²Ľ": 4761,
      "ĠAd": 4762,
      "Ġâ²īâ²£Ï©â²ŁÏ¯": 4763,
      "Ġwrr": 4764,
      "kêľ£êŀ½": 4765,
      "cheche": 4766,
      "Ġ.....": 4767,
      "Ġâ²ģâ²Ĺâ²Łâ²©": 4768,
      "ĠVictor": 4769,
      "Ġlisten": 4770,
      "fd": 4771,
      "ket": 4772,
      "oi": 4773,
      "tter": 4774,
      "Ġhard": 4775,
      "Ġâ²¥Ï©": 4776,
      "â²Ľâ²īâ²Ļ": 4777,
      "Ġ50": 4778,
      "Ġbreast": 4779,
      "Ġtransgress": 4780,
      "Ġointment": 4781,
      "Ġbiological": 4782,
      "fest": 4783,
      "vest": 4784,
      "Ġsalt": 4785,
      "ĠÏ©â²ģâ²ĵ": 4786,
      "Ġpêľ£w": 4787,
      "enty": 4788,
      "elcome": 4789,
      "Ġqrs": 4790,
      "Ġthroat": 4791,
      "Ġâ²īâ²Ľâ²§â²Łâ²Ĺâ²ı": 4792,
      "Ġâ²Łâ²©â²±Ï£â²§": 4793,
      "Ġsubject": 4794,
      "Chnum": 4795,
      "Ġty": 4796,
      "Ġnorthern": 4797,
      "Ġdmy": 4798,
      "Ġkept": 4799,
      "Ġpro": 4800,
      "ptah": 4801,
      "Thot": 4802,
      "â²§â²īâ²Ľâ²Łâ²©": 4803,
      "Ġâ²Łâ²©â²±â²£â²¡": 4804,
      "Ġâ²Łâ²©â²ıÏ©": 4805,
      "under": 4806,
      "Ġsqu": 4807,
      "Ġrose": 4808,
      "Ġâ²ģâ²¥â²īâ²ĥâ²ıâ²¥": 4809,
      "ĠÏ©â²Łâ²Ļ": 4810,
      "anks": 4811,
      "â²ķâ²Łâ²¥": 4812,
      "ophr": 4813,
      "Ġâ²ŁÏ£": 4814,
      "Ġpapyrus": 4815,
      "////": 4816,
      "sed": 4817,
      "tá¸«": 4818,
      "ze": 4819,
      "Ġori": 4820,
      "Ġsêľ£b": 4821,
      "Ġá¸¥zw": 4822,
      "arch": 4823,
      "Ġheat": 4824,
      "á¹¯zi": 4825,
      "ety": 4826,
      "Ġâ²Ľâ²ģâ²Ľâ²Łâ²©": 4827,
      "Ġsuck": 4828,
      "â²ĥâ²ĵâ²Ł": 4829,
      "Ġfollowing": 4830,
      "Ġâ²ģÏ£â²ģâ²ĵ": 4831,
      "Ġ(?;": 4832,
      "Ġtable": 4833,
      "â²ĥâ²±â²§": 4834,
      "Ġâ²ķâ²±â²§": 4835,
      "ÏŃâ²ī": 4836,
      "Thus": 4837,
      "apis": 4838,
      "â²Ľâ²ģâ²Ļ": 4839,
      "Ġangel": 4840,
      "Make": 4841,
      "Ġmost": 4842,
      "Ġâ²ģâ²¡â²ī": 4843,
      "â²Łâ²©â²£â²Ł": 4844,
      "Ġfort": 4845,
      "ĠHar": 4846,
      "wêŀ½êľ£": 4847,
      "ĠEm": 4848,
      "ols": 4849,
      "Ġâ²Ľâ²§â²ģ": 4850,
      "Ġdonation": 4851,
      "----------------------------------------------------------------------------------------------------------------------------------------------------------------------------------------------------------------------------------------------------------------": 4852,
      "Ġestate": 4853,
      "ophris": 4854,
      "Ġâ²Ľâ²ķâ²Łâ²§": 4855,
      "á¸«sf": 4856,
      "anger": 4857,
      "ĠÏ«â²£â²Ł": 4858,
      "Ġonce": 4859,
      "â²±â²Ļâ²ī": 4860,
      "â²ħâ²ī": 4861,
      "Ġâ²ĩâ²ĵâ²ķâ²ģâ²ĵâ²Łâ²¥â²©â²Ľâ²ı": 4862,
      "Ġunderstanding": 4863,
      "Ġchariot": 4864,
      "â²Łâ²ıâ²ĳ": 4865,
      "Ġnm": 4866,
      "Ġfulf": 4867,
      "Ġâ²Ļâ²§â²Łâ²Ľ": 4868,
      "Å¡p": 4869,
      "Ġ18": 4870,
      "â²ģâ²ĵâ²ī": 4871,
      "â²ĥâ²ĵâ²±": 4872,
      "ĠÏ£â²Łâ²©Ï£â²±â²Łâ²©Ï£â²ĵ": 4873,
      "ĠÏ©â²©â²¡": 4874,
      "Ġdmêŀ½": 4875,
      "Ġtoo": 4876,
      "Ġâ²¥â²±â²Łâ²©": 4877,
      "â²ģâ²Ľâ²ģ": 4878,
      "Ġdoing": 4879,
      "Ġâ²§â²ģâ²Ĺ": 4880,
      "ĠÏ£â²ıâ²Ļ": 4881,
      "Ġcraft": 4882,
      "Ġentourage": 4883,
      "Ġtremb": 4884,
      "Ġbêŀ½k": 4885,
      "Ġtax": 4886,
      "Ġêŀ½êľ£wi": 4887,
      "Ġreveal": 4888,
      "Ġsimil": 4889,
      "ais": 4890,
      "iby": 4891,
      "ible": 4892,
      "â²«â²ģâ²ĵ": 4893,
      "Praise": 4894,
      "Che": 4895,
      "ius": 4896,
      "Ġhom": 4897,
      "Ġâ²Ļâ²ķâ²ģÏ©": 4898,
      "ĠÏ£â²ģâ²Ľâ²§": 4899,
      "Ġkilled": 4900,
      "ĠEl": 4901,
      "Ġbodies": 4902,
      "Ġquick": 4903,
      "Ġworshiper": 4904,
      "acrifice": 4905,
      "kai": 4906,
      "Ġ*": 4907,
      "Ġcake": 4908,
      "ĠÏ£â²ģâ²£â²Ł": 4909,
      "lebr": 4910,
      "â²ıâ²¥â²ĵâ²ģ": 4911,
      "â²ģâ²ĥâ²©â²Ĺâ²±â²Ľ": 4912,
      "Ġcheer": 4913,
      "Ġwá¸«": 4914,
      "Ġêŀ½êľ¥á¸¥": 4915,
      "Ġram": 4916,
      "Ġthink": 4917,
      "ĠImi": 4918,
      "â²ķâ²ı": 4919,
      "â²£â²īÏ¥": 4920,
      "ĠSab": 4921,
      "Ġvalley": 4922,
      "Ġâ²īâ²¥â²±â²Łâ²©": 4923,
      "Ġclothes": 4924,
      "Ġremember": 4925,
      "ĠwÅ¡b": 4926,
      "eren": 4927,
      "Ġá¸ıwêŀ½": 4928,
      "ĠÅ¡p": 4929,
      "ĠTef": 4930,
      "Ġmdwi": 4931,
      "Ġconsum": 4932,
      "Ġtwtw": 4933,
      "ĠHermopolis": 4934,
      "Ġorigin": 4935,
      "â²Łâ²ĩ": 4936,
      "Ġpos": 4937,
      "êľ¥á¸¥êľ£": 4938,
      "Ġdam": 4939,
      "Ġthirst": 4940,
      "â²īâ²Ľâ²¥â²ģ": 4941,
      "Ġâ²ĵâ²ŁÏ¯": 4942,
      "Ġstop": 4943,
      "ĠNineness": 4944,
      "Ġswá¸ıêľ£": 4945,
      "â²Łâ²Ļâ²īâ²ĵ": 4946,
      "Ġsmell": 4947,
      "Where": 4948,
      "iour": 4949,
      "Ġ0": 4950,
      "Ġmá¸ıêľ£": 4951,
      "Ġtoward": 4952,
      "â²¡â²ģâ²ĵ": 4953,
      "Ġforward": 4954,
      "Ġshad": 4955,
      "ĠSachmet": 4956,
      "êŀ½mm": 4957,
      "Ġlips": 4958,
      "mentioned": 4959,
      "Ġnext": 4960,
      "ĠVener": 4961,
      "Ġâ²ģâ²ĵâ²±â²Ľ": 4962,
      "Ġâ²ĵâ²Łâ²©â²ĩâ²ģâ²ĵ": 4963,
      "Ġâ²ģâ²ĥâ²£â²ģ": 4964,
      "Ġungodly": 4965,
      "Long": 4966,
      "Sokar": 4967,
      "swt": 4968,
      "á¸«êľ£s": 4969,
      "ades": 4970,
      "Ġtruly": 4971,
      "ification": 4972,
      "yard": 4973,
      "Ġâ²Ľâ²ŁÏ©": 4974,
      "á¸ıá¸¥w": 4975,
      "Ġlament": 4976,
      "elt": 4977,
      "Ġswall": 4978,
      "Ġwêľ£g": 4979,
      "Thous": 4980,
      "Ġâ²¥â²Ľâ²ıâ²©": 4981,
      "Ġdecl": 4982,
      "smêľ£": 4983,
      "ery": 4984,
      "Ġrays": 4985,
      "ĠÏ§â²īâ²Ĺ": 4986,
      "ession": 4987,
      "Ġthough": 4988,
      "â²ĩâ²ģâ²Ľ": 4989,
      "hia": 4990,
      "Ġiniquity": 4991,
      "Ġcleansed": 4992,
      "pter": 4993,
      "Ġêŀ½pw": 4994,
      "Ġfif": 4995,
      "ĠÏ©â²Łâ²Ľ": 4996,
      "cepter": 4997,
      "Ġprison": 4998,
      "Ġclose": 4999,
      "Ġâ²ķâ²±Ï©â²§": 5000,
      "Ġtribe": 5001,
      "ĠPrince": 5002,
      "Ġâ²¥â²ıÏ¥â²ĵ": 5003,
      "Ġpleasant": 5004,
      "Spe": 5005,
      "nis": 5006,
      "wÅ¡": 5007,
      "where": 5008,
      "Ġtakes": 5009,
      "êŀ½st": 5010,
      "Ġsq": 5011,
      "Ġfer": 5012,
      "Ġá¸«w": 5013,
      "str": 5014,
      "ivine": 5015,
      "ĠNow": 5016,
      "Ġâ²¡â²Łâ²Ĺâ²īâ²Ļ": 5017,
      "ĠProphet": 5018,
      "Ġready": 5019,
      "Ġapproach": 5020,
      "bd": 5021,
      "ple": 5022,
      "Ġâ²¡â²ģâ²§": 5023,
      "Ġdream": 5024,
      "Ġswn": 5025,
      "â²ħâ²Łâ²¥": 5026,
      "Ġzêľ£w": 5027,
      "Ġaccount": 5028,
      "ĠApophis": 5029,
      "offerings": 5030,
      "â²¡â²ĵâ²¥â²ķ": 5031,
      "aac": 5032,
      "zÅ¡": 5033,
      "Ġwhether": 5034,
      "á¸¥tr": 5035,
      "Ġbore": 5036,
      "Ġele": 5037,
      "snêŀ½": 5038,
      "Ġgreater": 5039,
      "Ġsole": 5040,
      "meri": 5041,
      "Ġeaten": 5042,
      "Ġêŀ½êľ£d": 5043,
      "ĠMerire": 5044,
      "aa": 5045,
      "bis": 5046,
      "Ã¯": 5047,
      "Ġpoured": 5048,
      "â²§â²ıâ²¥": 5049,
      "Å¡ms": 5050,
      "â²ķâ²±â²Ľ": 5051,
      "â²£â²īâ²¥": 5052,
      "Ġâ²ĥâ²ģâ²ĥâ²©â²Ĺâ²±â²Ľ": 5053,
      "Ġservice": 5054,
      "Ġaw": 5055,
      "Ġâ²Ļâ²ĥ": 5056,
      "ĠHars": 5057,
      "Å¡mi": 5058,
      "ize": 5059,
      "Ġmsá¸ır": 5060,
      "Ġteam": 5061,
      "ĠSophia": 5062,
      "kêŀ½": 5063,
      "nger": 5064,
      "ĠÏ©â²Łâ²£": 5065,
      "irgin": 5066,
      "ĠLiby": 5067,
      "ĠShu": 5068,
      "ush": 5069,
      "ĠPs": 5070,
      "â²±â²§â²Ľ": 5071,
      "ĠJew": 5072,
      "ogn": 5073,
      "Ġâ²ģâ²ħâ²ģâ²ĳâ²Łâ²Ľ": 5074,
      "sÅ¡r": 5075,
      "Ġaut": 5076,
      "Ġthigh": 5077,
      "Ġyouth": 5078,
      "â²¡â²ģ": 5079,
      "chre": 5080,
      "Ġá¸«nd": 5081,
      "Ġstar": 5082,
      "Ġstones": 5083,
      "snake": 5084,
      "epen": 5085,
      "Ġâ²¡â²ĵâ²¥": 5086,
      "aced": 5087,
      "ĠÏ£â²ģÏ¥â²ī": 5088,
      "Ġaccom": 5089,
      "êŀ½êľ£r": 5090,
      "Ġêŀ½ti": 5091,
      "Ġopening": 5092,
      "Anubis": 5093,
      "Ġá¸ıêľ£r": 5094,
      "ĠÏ©â²£â²Łâ²Łâ²©": 5095,
      "Ġcomplex": 5096,
      "Ġgarments": 5097,
      "Ġpopular": 5098,
      "ro": 5099,
      "twt": 5100,
      "Ġbit": 5101,
      "ĠGal": 5102,
      "elve": 5103,
      "Ġâ²Ĺâ²ģâ²¥": 5104,
      "Ġâ²§â²Łâ²©â²ĥâ²Ł": 5105,
      "ient": 5106,
      "Ġâ²Łâ²©â²īâ²£": 5107,
      "Ġâ²ķâ²ģâ²Ĺ": 5108,
      "Ġêŀ½mêŀ½": 5109,
      "ĠÅ¡êľ£êľ¥": 5110,
      "ĠAll": 5111,
      "Ġsafe": 5112,
      "Ġmanner": 5113,
      "ĠÏ©â²Ļâ²Łâ²§": 5114,
      "Ġsuper": 5115,
      "ĠEgyptians": 5116,
      "Ġcool": 5117,
      "Ġanointing": 5118,
      "Ġadversary": 5119,
      "uf": 5120,
      "heart": 5121,
      "Ġbed": 5122,
      "Ġá¸«ns": 5123,
      "Ġanci": 5124,
      "Ġwrote": 5125,
      "Ġconn": 5126,
      "Ġaccept": 5127,
      "sible": 5128,
      "ways": 5129,
      "Ġcourage": 5130,
      "Ġcelebr": 5131,
      "Ġfalse": 5132,
      "Ġseize": 5133,
      "Egyptian": 5134,
      "Ġsitting": 5135,
      "Ġâ²Łâ²©â²ıâ²ĵ": 5136,
      "Ġtowards": 5137,
      "Ġbetter": 5138,
      "Ġann": 5139,
      "isting": 5140,
      "nbs": 5141,
      "Ġâ²īâ²ĵâ²Łâ²§â²ī": 5142,
      "Hathor": 5143,
      "â²§â²Łâ²§â²ī": 5144,
      "Ġlords": 5145,
      "ĠÏ«â²¡": 5146,
      "ĠHall": 5147,
      "ĠCho": 5148,
      "Ġâ²ĥâ²ĵâ²ķ": 5149,
      "Ġdece": 5150,
      "â²Łâ²«â²©â²Ĺ": 5151,
      "Ġkeeper": 5152,
      "ná¸¥á¸¥": 5153,
      "Thousands": 5154,
      "Ġpot": 5155,
      "Ġâ²¡â²£â²Łâ²¥": 5156,
      "Ġlower": 5157,
      "ann": 5158,
      "Ġâ²£â²Łâ²©": 5159,
      "ĠSav": 5160,
      "Ġâ²īâ²£â²«": 5161,
      "Ġspent": 5162,
      "Ġwriting": 5163,
      "ĠÏ©â²īâ²Ĺ": 5164,
      "Ġâ²±â²ĵâ²ķ": 5165,
      "Ġrmn": 5166,
      "Ġhorse": 5167,
      "Ġwomb": 5168,
      "which": 5169,
      "Ġprosper": 5170,
      "Ġwo": 5171,
      "â²ģâ²ģ": 5172,
      "â²£â²ı": 5173,
      "â²£â²ģâ²ĵ": 5174,
      "á¸«ns": 5175,
      "Ġcalf": 5176,
      "Ġá¸¥tm": 5177,
      "Ġâ²ģÏ¥": 5178,
      "ĠÏ«â²Łâ²īâ²ĵ": 5179,
      "empt": 5180,
      "Ġâ²īâ²£Ï£": 5181,
      "Ġêŀ½nn": 5182,
      "Ġsupport": 5183,
      "Ġestablished": 5184,
      "Ġâ²ĥâ²ĵâ²ķâ²§â²±â²£": 5185,
      "bur": 5186,
      "ĠÏ©â²ĳ": 5187,
      "gaz": 5188,
      "Ġáºĸkr": 5189,
      "á¸¥wi": 5190,
      "bêŀ½t": 5191,
      "Ġspeaking": 5192,
      "Ġdonkey": 5193,
      "Ġcover": 5194,
      "Ġangels": 5195,
      "Ġâ²§â²ģâ²¡â²£â²Ł": 5196,
      "cil": 5197,
      "isor": 5198,
      "Ġint": 5199,
      "êŀ½ry": 5200,
      "Ġtwelve": 5201,
      "Ġleaves": 5202,
      "ostr": 5203,
      "ĠÏ©â²ĵâ²§â²Łâ²§": 5204,
      "Ġtrium": 5205,
      "Ġpleased": 5206,
      "Ġcompletely": 5207,
      "Ġseized": 5208,
      "Ġheight": 5209,
      "Ġreward": 5210,
      "Ġgrant": 5211,
      "ĠDead": 5212,
      "Ġâ²ģâ²Ĺâ²Ĺ": 5213,
      "Ġfeasts": 5214,
      "Ġglorious": 5215,
      "â²§â²±â²Ľ": 5216,
      "ander": 5217,
      "Ġmeas": 5218,
      "Ġspoil": 5219,
      "Ġâ²¥â²±Ï«â²¡": 5220,
      "Ġâ²¡â²ģâ²£â²ģ": 5221,
      "smn": 5222,
      "ĠÏ©â²ĵâ²Łâ²Łâ²©â²ī": 5223,
      "Ġâ²¥â²ĵâ²±â²Ľ": 5224,
      "Ġêŀ½db": 5225,
      "Ġprocl": 5226,
      "Pharaoh": 5227,
      "Ġsimilar": 5228,
      "Sh": 5229,
      "wá¸¥m": 5230,
      "atter": 5231,
      "Å¡y": 5232,
      "Ġsack": 5233,
      "Ġstret": 5234,
      "ĠMay": 5235,
      "Ġmanor": 5236,
      "Ġdeeds": 5237,
      "Ġaff": 5238,
      "bá¸¥d": 5239,
      "Ġninety": 5240,
      "Ġcopper": 5241,
      "Ref": 5242,
      "Ġâ²¥â²ĥâ²±": 5243,
      "otes": 5244,
      "Ġâ²ķâ²ĵâ²Ļ": 5245,
      "Ġkk": 5246,
      "ĠHeb": 5247,
      "Ġâ²Ľâ²ıâ²īâ²§â²ī": 5248,
      "Ġsá¸«pr": 5249,
      "Ġequipped": 5250,
      "Ex": 5251,
      "ĠsÅ¡r": 5252,
      "Ġhope": 5253,
      "Ġcase": 5254,
      "Ġcult": 5255,
      "Ġâ²ģâ²«â²ī": 5256,
      "Ġet": 5257,
      "Ġâ²Ľâ²ģâ²Ľâ²ī": 5258,
      "Ġshar": 5259,
      "osis": 5260,
      "Ġpermanent": 5261,
      "Ġhorses": 5262,
      "Ġshepherd": 5263,
      "Ġâ²ģâ²Ļâ²ģÏ©â²§â²ī": 5264,
      "aus": 5265,
      "heb": 5266,
      "â²īâ²Ľâ²ī": 5267,
      "ĠII": 5268,
      "ĠAsi": 5269,
      "ĠOE": 5270,
      "nnophris": 5271,
      "Ġarose": 5272,
      "Ġarisen": 5273,
      "Ġlooking": 5274,
      "Ġresidence": 5275,
      "mes": 5276,
      "Ġâ²īâ²¡": 5277,
      "Ġâ²¡â²Łâ²Ľ": 5278,
      "itel": 5279,
      "Ġgy": 5280,
      "Ġloud": 5281,
      "Ġstaff": 5282,
      "ĠMag": 5283,
      "â²ħâ²ĵâ²Łâ²¥": 5284,
      "Ġexult": 5285,
      "Ġá¸«êľ£w": 5286,
      "Ġaction": 5287,
      "Ġâ²£â²ĵâ²Ļâ²ī": 5288,
      "jjjj": 5289,
      "bone": 5290,
      "Ġsêŀ½êľ£": 5291,
      "Ġâ²ģâ²ķ": 5292,
      "ĠÏ©â²Ĺ": 5293,
      "ane": 5294,
      "Ġshut": 5295,
      "nti": 5296,
      "Ġâ²īâ²£Ï£â²ģâ²Ľ": 5297,
      "ĠâĢĺ": 5298,
      "ervant": 5299,
      "ueen": 5300,
      "Ġâ²¥â²Ļâ²Łâ²§": 5301,
      "bbbb": 5302,
      "Ġcompass": 5303,
      "Ġappears": 5304,
      "Ġeternal": 5305,
      "Ġsuffer": 5306,
      "Ġempt": 5307,
      "Â·Â·Â·Â·": 5308,
      "Ġâ²Ľâ²ŁÏ©â²īâ²Ļ": 5309,
      "\"'": 5310,
      "Tr": 5311,
      "fort": 5312,
      "pre": 5313,
      "êŀ½á¹¯i": 5314,
      "Ġnêŀ½s": 5315,
      "Ġcovered": 5316,
      "Ġâ²¥â²¡": 5317,
      "Ġâ²¥â²ĳ": 5318,
      "iding": 5319,
      "Ï£Ï¥": 5320,
      "Ġêŀ½rêŀ½": 5321,
      "Ġ23": 5322,
      "Ġâ²Ľâ²§â²īâ²£": 5323,
      "Ġate": 5324,
      "ĠJwn": 5325,
      "Ġêľ¥êľ£pp": 5326,
      "Ġêľ£bá¸ı": 5327,
      "Ġâ²£â²īÏ¥â²£": 5328,
      "ĠsÅ¡mi": 5329,
      "ĠÏ©â²§â²ı": 5330,
      "â²ģâ²Ń": 5331,
      "Ġâ²īÏ£â²±â²¡â²ī": 5332,
      "Å¡êŀ½": 5333,
      "ĠÏ£Ï«â²Łâ²Ļ": 5334,
      "Ġshame": 5335,
      "Ġsaint": 5336,
      "istis": 5337,
      "á¹±y": 5338,
      "astis": 5339,
      "Ġâ²Ļâ²ģâ²¥": 5340,
      "ĠWen": 5341,
      "Ġlik": 5342,
      "Ġstreng": 5343,
      "iiii": 5344,
      "ãĢī": 5345,
      "Ġrubbed": 5346,
      "ĠÏ§â²ģâ²§â²īâ²Ľ": 5347,
      "ares": 5348,
      "â²ĵâ²įâ²ī": 5349,
      "Ġbind": 5350,
      "á¸«w": 5351,
      "Å¡sp": 5352,
      "â²ĥâ²ĥ": 5353,
      "Ġâ²©â²Ľâ²Łâ²©": 5354,
      "Ġexec": 5355,
      "Ġdesires": 5356,
      "ĠIsaac": 5357,
      "Ġtrees": 5358,
      "ãĢĪ": 5359,
      "erences": 5360,
      "References": 5361,
      "ios": 5362,
      "km": 5363,
      "á¸«ft": 5364,
      "Ġâ²Ľâ²ģâ²£â²ī": 5365,
      "Ġâ²ķâ²ģâ²£": 5366,
      "iron": 5367,
      "ĠSion": 5368,
      "Hey": 5369,
      "Ġâ²ĥâ²Łâ²ıâ²ĳ": 5370,
      "asting": 5371,
      "Ġhousehold": 5372,
      "ney": 5373,
      "ĠChepri": 5374,
      "Ġproperty": 5375,
      "ĠÃ": 5376,
      "itle": 5377,
      "Ġlength": 5378,
      "Ġbegan": 5379,
      "Ġâ²Ļâ²ģâ²ģâ²©": 5380,
      "Ġmry": 5381,
      "Ġmná¹¯": 5382,
      "Ġâ²±â²Ľâ²ĵ": 5383,
      "Ġserving": 5384,
      "Ġadv": 5385,
      "Ġharm": 5386,
      "################": 5387,
      "YYYY": 5388,
      "â²§â²ı": 5389,
      "Ġfy": 5390,
      "â²£â²±": 5391,
      "Ġden": 5392,
      "Ġâ²¥â²ģâ²§": 5393,
      "Ġbeasts": 5394,
      "ĠGr": 5395,
      "â²ģâ²§â²Łâ²¥": 5396,
      "Ġâ²ĳâ²Ĺâ²ĵ": 5397,
      "Ġsoon": 5398,
      "â²Łâ²Łâ²£": 5399,
      "Ġseeing": 5400,
      "â²Ĺâ²ĵâ²Ĺ": 5401,
      "Ġhealed": 5402,
      "Ġresin": 5403,
      "Ġâ²£â²ģÏ£â²ī": 5404,
      "Rang": 5405,
      "ten": 5406,
      "Ġâ²ĽÏ©": 5407,
      "Ġrpy": 5408,
      "ribut": 5409,
      "also": 5410,
      "â²ķâ²ģ": 5411,
      "ĠÏŃâ²Ĺâ²ĵâ²Ĺ": 5412,
      "Ġgro": 5413,
      "Ġsmêŀ½": 5414,
      "â²ģâ²¥â²¥": 5415,
      "ĠThr": 5416,
      "000": 5417,
      "Ġprecept": 5418,
      "Ġpaths": 5419,
      "epenre": 5420,
      "Fest": 5421,
      "ners": 5422,
      "Ġbene": 5423,
      "Ġshare": 5424,
      "ĠPistis": 5425,
      "Ġâ²īâ²£â²¡": 5426,
      "ĠÏ©â²ĵâ²§â²Ļ": 5427,
      "Ġâ²Łâ²īâ²ĵâ²ķ": 5428,
      "Ap": 5429,
      "cess": 5430,
      "Ġsign": 5431,
      "ĠÏ©â²±â²§": 5432,
      "ĠÏ£â²ģâ²ĵ": 5433,
      "ntr": 5434,
      "â²īâ²ĵâ²ģ": 5435,
      "mná¹±": 5436,
      "â²īâ²£Ï£â²±â²Łâ²©Ï£â²ĵ": 5437,
      "::::::::::::::::": 5438,
      "Ġquickly": 5439,
      "fat": 5440,
      "Ġá¹¯r": 5441,
      "â²ĵâ²ĩ": 5442,
      "enut": 5443,
      "ulet": 5444,
      "â²ģâ²£â²Ń": 5445,
      "kêľ£kêľ£êŀ½": 5446,
      "Ġleg": 5447,
      "Ġâ²Ļâ²¡â²ģâ²§": 5448,
      "Ġâ²¥â²±Ï£â²ī": 5449,
      "Ġincre": 5450,
      "raam": 5451,
      "Ġâ²Ļâ²ģâ²£â²ĵâ²ģ": 5452,
      "Ġrebels": 5453,
      "Ġillumin": 5454,
      "ĠÏ£â²Łâ²Ļâ²Ľâ²§": 5455,
      "ĠÏ©â²Łâ²ĽÏ©â²īâ²Ľ": 5456,
      "Seth": 5457,
      "vail": 5458,
      "when": 5459,
      "Ġid": 5460,
      "Ġmet": 5461,
      "Ġrod": 5462,
      "á¸ıy": 5463,
      "ĠÏ£â²ĵâ²Ľâ²ĵ": 5464,
      "Ġabhor": 5465,
      "Ġwêľ¥r": 5466,
      "Ġbnr": 5467,
      "Ġâ²Ļâ²īâ²§â²Łâ²©â²£â²Ł": 5468,
      "Ġacts": 5469,
      "Ġâ²§â²ıâ²ĵâ²§": 5470,
      "Ġâ²§â²ģÏ«â²£â²Ł": 5471,
      "Ġâ²¥â²Łâ²§â²¡": 5472,
      "your": 5473,
      "eral": 5474,
      "Ġlad": 5475,
      "Ġâ²ĵâ²Łâ²£": 5476,
      "â²ģâ²Ľâ²Łâ²©": 5477,
      "ĠEs": 5478,
      "umb": 5479,
      "bêľ£k": 5480,
      "Ġgrains": 5481,
      "swá¸ıêľ£": 5482,
      "ĠÏ©â²ģâ²ħâ²ĵâ²Łâ²¥": 5483,
      "Ġdesol": 5484,
      "Ġsbá¸«": 5485,
      "Ġregions": 5486,
      "ĠÏ©â²ĵâ²§â²Łâ²Łâ²§": 5487,
      "Ġdignity": 5488,
      "â²ĥâ²ıâ²ıâ²§": 5489,
      "Ġduration": 5490,
      "Ġâ²¡â²īâ²§Ï©â²Łâ²Łâ²©": 5491,
      "â²¡â²ĵâ²¥â²ķâ²Łâ²¡â²Łâ²¥": 5492,
      "born": 5493,
      "sá¸ır": 5494,
      "Ġer": 5495,
      "Ġwretched": 5496,
      "Ġmum": 5497,
      "eris": 5498,
      "Ġcorn": 5499,
      "Ġforget": 5500,
      "â²ģâ²§â²Łâ²Ľ": 5501,
      "Ġá¹¯y": 5502,
      "Ġalm": 5503,
      "Beware": 5504,
      "Ġforemost": 5505,
      "Ġmonths": 5506,
      "ĠAbraam": 5507,
      "Ġsupervisor": 5508,
      "burnt": 5509,
      "Ġnaked": 5510,
      "â²§â²Łâ²Ĺ": 5511,
      "esis": 5512,
      "Ġâ²Łâ²©â²ĵ": 5513,
      "aying": 5514,
      "Ġreaches": 5515,
      "Ġâ²ĳâ²±â²Łâ²©": 5516,
      "Ġunite": 5517,
      "Ġâ²Ļâ²īâ²§â²ģâ²Ľ": 5518,
      "Ġtransfigured": 5519,
      "ĠSyri": 5520,
      "Ġlifted": 5521,
      "Ġrule": 5522,
      "ĠÏ£â²«â²ıâ²£": 5523,
      "phantine": 5524,
      "Ġantel": 5525,
      "Ġâ²¡â²Łâ²Ĺâ²īâ²Ļâ²Łâ²¥": 5526,
      "gn": 5527,
      "oor": 5528,
      "uc": 5529,
      "Ġpzn": 5530,
      "Ġâ²¡â²ģâ²Ľâ²§": 5531,
      "â²ıâ²¡â²ĵ": 5532,
      "Ġâ²¥â²ķâ²ī": 5533,
      "ĠPach": 5534,
      "Ġá¸¥mêľ£": 5535,
      "rêľ¥wðĵįº": 5536,
      "Ġdew": 5537,
      "Ġoffered": 5538,
      "âĢĻ": 5539,
      "Ġlived": 5540,
      "Ġelimin": 5541,
      "Ġauthor": 5542,
      "Wor": 5543,
      "val": 5544,
      "Ġment": 5545,
      "Ġmá¸¥r": 5546,
      "â²§â²£â²ī": 5547,
      "â²§â²īâ²£": 5548,
      "Ġâ²īâ²§â²ĥâ²ıâ²ıâ²§": 5549,
      "ĠTemple": 5550,
      "ĠWh": 5551,
      "Ġtroub": 5552,
      "â²Łâ²ĵâ²ģ": 5553,
      "Ġflock": 5554,
      "â²Łâ²£â²§â²£": 5555,
      "Ġâ²Ļâ²Ľâ²Ľâ²¥â²ģ": 5556,
      "Ġpour": 5557,
      "onna": 5558,
      "ani": 5559,
      "chi": 5560,
      "lease": 5561,
      "eme": 5562,
      "ĠMary": 5563,
      "Ġqb": 5564,
      "ĠBas": 5565,
      "ĠJos": 5566,
      "Ġgrace": 5567,
      "Ġservings": 5568,
      "rupt": 5569,
      "ĠÅ¡êľ¥d": 5570,
      "Ġlonger": 5571,
      "Ġâ²Ļâ²ģâ²Ľâ²īâ²£Ï£â²±â²Łâ²©Ï£â²ĵ": 5572,
      "Ġcrocodile": 5573,
      "Ġquestion": 5574,
      "even": 5575,
      "rdi": 5576,
      "Ġtent": 5577,
      "â²§â²īâ²©â²ī": 5578,
      "ordan": 5579,
      "â²īâ²ĵâ²¥": 5580,
      "Ġju": 5581,
      "ĠWag": 5582,
      "Ġâ²Łâ²Ĺ": 5583,
      "Ġforehead": 5584,
      "ĠÏŃâ²ĵâ²§": 5585,
      "Ġâ²Ľâ²ĳâ²±â²Łâ²©": 5586,
      "Ġâ²Ļâ²īâ²§â²Ļâ²īâ²ĳâ²£â²ī": 5587,
      "Ġcomplete": 5588,
      "eal": 5589,
      "tf": 5590,
      "Ġpar": 5591,
      "Ġgonna": 5592,
      "Ġyounger": 5593,
      "â²Łâ²©â²§": 5594,
      "Ġlam": 5595,
      "Ġzá¸«n": 5596,
      "ĠÏ©â²ĵâ²±â²§": 5597,
      "Ġâ²ĥâ²ģâ²£": 5598,
      "Ġext": 5599,
      "ĠÏ©â²ıâ²ķâ²ī": 5600,
      "Ġrsy": 5601,
      "Ġmultip": 5602,
      "Ġbelieve": 5603,
      "Ġescape": 5604,
      "ĠÏ«â²Łâ²¥â²ī": 5605,
      "Ġâ²ģâ²ĥâ²£â²ģâ²ģâ²Ļ": 5606,
      "dp": 5607,
      "zmêľ£": 5608,
      "Ġrk": 5609,
      "Ġthir": 5610,
      "Ġgre": 5611,
      "ĠSh": 5612,
      "ĠOnnophris": 5613,
      "ĠJordan": 5614,
      "Ġgrow": 5615,
      "Ġâ²Ľâ²§â²Łâ²Łâ²©": 5616,
      "â²īâ²£â²īâ²©â²¥": 5617,
      "Ġquarter": 5618,
      "Ġshadow": 5619,
      "Ġward": 5620,
      "Ġwdi": 5621,
      "â²ģâ²ģâ²ķ": 5622,
      "Ġlow": 5623,
      "ĠÏ£â²¡â²ıâ²£â²ī": 5624,
      "Ġêľ¥m": 5625,
      "Ġ19": 5626,
      "ĠHem": 5627,
      "Ġâ²§â²ģâ²Ĺâ²Ł": 5628,
      "there": 5629,
      "ĠPhy": 5630,
      "Ġdisp": 5631,
      "Ġcontinue": 5632,
      "Ġâ²Ļâ²Łâ²Łâ²©â²§": 5633,
      "Ġlocated": 5634,
      "Ġmentioned": 5635,
      "ju": 5636,
      "hel": 5637,
      "á¸¥y": 5638,
      "Ġpêŀ½": 5639,
      "Ġind": 5640,
      "ored": 5641,
      "Ġâ²¥â²ģâ²ĥâ²ī": 5642,
      "Ġâ²¡â²ģâ²£â²ĳ": 5643,
      "ĠDjes": 5644,
      "Ġá¸«nms": 5645,
      "figur": 5646,
      "Ġsupposed": 5647,
      "Ġclothed": 5648,
      "Ġâ²Ľâ²Ľâ²ģÏ©": 5649,
      "Ġâ²īâ²ķâ²ķâ²Ĺ": 5650,
      "Nefer": 5651,
      "Teti": 5652,
      "ience": 5653,
      "rtá¸¥": 5654,
      "â²£â²ĵâ²¥": 5655,
      "uti": 5656,
      "Ġâ²¡â²īÏ«â²±": 5657,
      "amm": 5658,
      "efore": 5659,
      "ĠÏ©â²ĵâ²Łâ²Ļ": 5660,
      "Ġtwêľ£": 5661,
      "â²¡â²īâ²£": 5662,
      "Ġski": 5663,
      "Ġresting": 5664,
      "ĠÏ©â²ŁÏ¯": 5665,
      "Ġattention": 5666,
      "Ġsuppl": 5667,
      "Ġbuilding": 5668,
      "Ġborders": 5669,
      "ĠÏ«â²¡â²Ł": 5670,
      "Ġnation": 5671,
      "Ġmove": 5672,
      "Ġêŀ½Å¡d": 5673,
      "ĠÏ¯â²¥â²ĥâ²±": 5674,
      "Ġalways": 5675,
      "Ġsná¸ım": 5676,
      "beh": 5677,
      "Ġbelow": 5678,
      "Ġsrf": 5679,
      "Ġtransl": 5680,
      "Ġbox": 5681,
      "Ġâ²Ļâ²īâ²Ľâ²īâ²Ľâ²¥â²ģ": 5682,
      "ĠÏ«â²£â²ŁÏ«": 5683,
      "uel": 5684,
      "Ġnwn": 5685,
      "Ġêŀ½bêľ£": 5686,
      "Ġâ²Ļâ²Łâ²¥": 5687,
      "only": 5688,
      "Ġcong": 5689,
      "Ġâ²¥â²ŁÏŃ": 5690,
      "Ġzn": 5691,
      "Ġwrá¸¥": 5692,
      "â²ģâ²©â²Ĺâ²Łâ²¥": 5693,
      "Ġâ²ĳâ²ıâ²£â²ĵâ²Łâ²Ľ": 5694,
      "igns": 5695,
      "Ġâ²¡â²ģâ²£â²īâ²Ļ": 5696,
      "soci": 5697,
      "Ġcommitted": 5698,
      "Ġothers": 5699,
      "Ġplease": 5700,
      "Ġadministration": 5701,
      "Ġoppos": 5702,
      "Ġinstruct": 5703,
      "Ġhuman": 5704,
      "ĠPhilist": 5705,
      "Krug": 5706,
      "aos": 5707,
      "rêľ£": 5708,
      "sá¸¥n": 5709,
      "Ġâ²Ļâ²ŁÏ©": 5710,
      "amen": 5711,
      "(?)/": 5712,
      "aped": 5713,
      "Whoever": 5714,
      "Ġsomeone": 5715,
      "Ġrejoic": 5716,
      "Ġgarment": 5717,
      "Ġâ²ĵâ²Łâ²£â²ĩâ²ģâ²Ľ": 5718,
      "oes": 5719,
      "Ġâ²Łâ²©â²īâ²ĵ": 5720,
      "Ġbeast": 5721,
      "Ġshine": 5722,
      "Ġstor": 5723,
      "Ġá¹¯s": 5724,
      "ĠDep": 5725,
      "Ġâ²Ļâ²Łâ²©â²ĵ": 5726,
      "Ġâ²Ļâ²¡Ï£â²ģ": 5727,
      "â²Ľâ²ĵâ²Ļ": 5728,
      "sá¸«pi": 5729,
      "Ġstra": 5730,
      "Ġfourth": 5731,
      "Ġsilent": 5732,
      "Ġmagnificent": 5733,
      "Ġâ²īâ²©â²«â²£": 5734,
      "ĠÏ£â²§â²Łâ²£â²§â²£": 5735,
      "Ġâ²Łâ²©â²§â²ģÏ©": 5736,
      "çļ": 5737,
      "Ġtkn": 5738,
      "Ġnigh": 5739,
      "â²ŁÏ«â²ĵ": 5740,
      "eferet": 5741,
      "Ġthereof": 5742,
      "â²Ńâ²ģ": 5743,
      "á¸¥msi": 5744,
      "Ġmayor": 5745,
      "êŀ½mná¹±": 5746,
      "â²£â²ĵâ²Ľâ²ī": 5747,
      "Ġimages": 5748,
      "Ġrecogn": 5749,
      "Ġrock": 5750,
      "Ġnineties": 5751,
      "Ġâ²ģâ²Ĺâ²Ĺâ²Łâ²«â²©â²Ĺ": 5752,
      "çļĦ": 5753,
      "Ġbanks": 5754,
      "Ġêŀ½êľ¥r": 5755,
      "Ġâ²Łâ²©â²ĥâ²ī": 5756,
      "Ġá¸¥zi": 5757,
      "ĠLev": 5758,
      "Ġash": 5759,
      "ĠÏŃâ²ĵâ²¥â²ĵ": 5760,
      "eloved": 5761,
      "â²Łâ²§â²Łâ²©": 5762,
      "Ġâ²ĵâ²¥â²ģâ²ģâ²ķ": 5763,
      "formed": 5764,
      "Ġtestimon": 5765,
      "ĠCrown": 5766,
      "ĠElephantine": 5767,
      "Ġâ²¡â²ģâ²£â²īâ²Ļâ²ĥâ²Łâ²Ĺâ²ı": 5768,
      "app": 5769,
      "Ġ+": 5770,
      "Ġbitten": 5771,
      "Ġâ²Łâ²©â²Łâ²ĵ": 5772,
      "Ġâ²§â²±â²Ļ": 5773,
      "omin": 5774,
      "Ġrequ": 5775,
      "ná¸«n": 5776,
      "Ġcomfort": 5777,
      "acious": 5778,
      "ĠÏ©â²ĵâ²Łâ²©â²ĵ": 5779,
      "Ġgreatly": 5780,
      "Ġwhatsoever": 5781,
      "Ġearly": 5782,
      "Ġdisk": 5783,
      "Ġjudges": 5784,
      "Ġwalking": 5785,
      "Ġmki": 5786,
      "Ġsurely": 5787,
      "Mer": 5788,
      "hêľ£y": 5789,
      "ws": 5790,
      "Ġben": 5791,
      "Ġâ²Ļâ²ĵâ²¥â²ĵ": 5792,
      "Ġâ²§â²ŁÏ£": 5793,
      "Ġassoci": 5794,
      "Ġtwenty": 5795,
      "Ġá¹¯êľ£i": 5796,
      "Ġviol": 5797,
      "â²įâ²ĵâ²Ľ": 5798,
      "Ġvenerable": 5799,
      "ĠÏ«â²Łâ²©Ï£â²§": 5800,
      "Ġantelope": 5801,
      "Man": 5802,
      "Ġocc": 5803,
      "Ġcup": 5804,
      "ĠÏ«â²Łâ²£": 5805,
      "â²ķÏ©": 5806,
      "ider": 5807,
      "aui": 5808,
      "Ġ40": 5809,
      "ĠRoyal": 5810,
      "Ġâ²Łâ²©â²±â²ĵâ²Ľâ²ĵ": 5811,
      "Ġâ²£â²īÏ¥Ï¯": 5812,
      "Ġâ²ģâ²¡â²Łâ²¥": 5813,
      "ĠJews": 5814,
      "Ġâ²ĵâ²Łâ²£â²ĩâ²ģâ²Ľâ²ıâ²¥": 5815,
      "let": 5816,
      "pá¸ı": 5817,
      "Ġ--": 5818,
      "Ġsides": 5819,
      "ĠÅ¡y": 5820,
      "Ġstretched": 5821,
      "Ġqnb": 5822,
      "Ġjour": 5823,
      "ĠBen": 5824,
      "bêľ£st": 5825,
      "ĠUE": 5826,
      "Ġsinned": 5827,
      "Ġâ²Ľâ²ģÏ©â²Ļâ²ī": 5828,
      "Ġstele": 5829,
      "â²£â²ģâ²§â²±â²£": 5830,
      "Ġâ²±â²£â²ķ": 5831,
      "wnt": 5832,
      "Ġwá¹¯z": 5833,
      "orch": 5834,
      "...,": 5835,
      "uty": 5836,
      "â²ĳâ²©â²Ļ": 5837,
      "ĠEph": 5838,
      "Ġsêľ£á¸¥": 5839,
      "ternity": 5840,
      "Ġbowls": 5841,
      "Ġprocessed": 5842,
      "Ġvineyard": 5843,
      "ĠTefnut": 5844,
      "ax": 5845,
      "mtr": 5846,
      "Ġfun": 5847,
      "Ġâ²Łâ²©â²Ľâ²ģâ²Ļ": 5848,
      "Ġâ²ģÏ©": 5849,
      "Ġêľ¥á¸«": 5850,
      "Ġâ²ķâ²ģâ²§": 5851,
      "â²Łâ²¥â²ĵ": 5852,
      "Ġswr": 5853,
      "tyt": 5854,
      "Ġâ²ĥâ²ģ": 5855,
      "Ġsmy": 5856,
      "Ġsá¸«êľ£": 5857,
      "Ġcauses": 5858,
      "Ġâ²īâ²Ļâ²ģÏ£â²±": 5859,
      "Ġâ²Łâ²©â²īÏ©": 5860,
      "Ġgovernor": 5861,
      "ĠÏŃâ²ĻÏŃâ²Łâ²Ļ": 5862,
      "Ġâ²ĳâ²©â²¥â²ĵâ²ģ": 5863,
      "Ġeffective": 5864,
      "annel": 5865,
      "Are": 5866,
      "rest": 5867,
      "acter": 5868,
      "Ġâ²§â²ģâ²©": 5869,
      "Ġâ²ĳâ²ģâ²Ĺâ²ģâ²¥â²¥â²ģ": 5870,
      "Ġâ²§â²ıâ²£Ï¥": 5871,
      "Ġâ²§â²īâ²Ľâ²ī": 5872,
      "Ġsá¸«t": 5873,
      "Ġchest": 5874,
      "III": 5875,
      "ĠLetopolis": 5876,
      "Ġneighbour": 5877,
      "Neith": 5878,
      "ĠUsermaatre": 5879,
      "Ġâ²ģâ²Ĺâ²Ĺâ²Łâ²«â²©â²Ĺâ²Łâ²¥": 5880,
      "yêľ£": 5881,
      "yond": 5882,
      "Ġnms": 5883,
      "á¸¥á¸¥": 5884,
      "Ġgard": 5885,
      "Ġhey": 5886,
      "Ġâ²ķâ²©": 5887,
      "ĠEast": 5888,
      "ables": 5889,
      "Ġêŀ½nr": 5890,
      "Head": 5891,
      "ĠBlessed": 5892,
      "Ġprec": 5893,
      "Ġêŀ½á¸¥y": 5894,
      "Ġequip": 5895,
      "ĠSaviour": 5896,
      "Ġâ²£â²īÏ¥â²£â²Ľâ²Łâ²ĥâ²ī": 5897,
      "tb": 5898,
      "êŀ½êŀ½": 5899,
      "Ġbag": 5900,
      "â²Ļâ²ģâ²Ľ": 5901,
      "Ġdust": 5902,
      "Ġlink": 5903,
      "Ï£â²Ł": 5904,
      "Ġêŀ½nb": 5905,
      "Ġbringing": 5906,
      "Ġthanks": 5907,
      "Ġstranger": 5908,
      "rae": 5909,
      "Ġá¸ıá¸¥wtêŀ½": 5910,
      "â²ģâ²¡â²ı": 5911,
      "Ġâ²¥â²ıÏ¥â²ī": 5912,
      "Ġproclaim": 5913,
      "Ġâ²īâ²ķâ²ķâ²Ĺâ²ıâ²¥â²ĵâ²ģ": 5914,
      "hm": 5915,
      "Ġed": 5916,
      "Ġnat": 5917,
      "ĠÏ©â²Łâ²¡": 5918,
      "ayer": 5919,
      "ĠSchu": 5920,
      "olent": 5921,
      "Ġprophes": 5922,
      "ission": 5923,
      "Ġsá¹¯êŀ½": 5924,
      "Ġhills": 5925,
      "Ġabundance": 5926,
      "meriamun": 5927,
      "ĠÃ¦": 5928,
      ".).": 5929,
      "Ġâ²īÏ¥Ï£â²ģâ²Ľ": 5930,
      "Ġ...!": 5931,
      "Ġâ²ĵâ²īâ²£": 5932,
      "ĠGent": 5933,
      "akle": 5934,
      "ĠLords": 5935,
      "Ġtêľ£Å¡": 5936,
      "Ġâ²«â²±": 5937,
      "Ġâ²§â²īâ²ĥ": 5938,
      "aben": 5939,
      "â²ģâ²§â²ıâ²¥": 5940,
      "â²Łâ²ķâ²£â²ģâ²§â²±â²£": 5941,
      "psá¸ı": 5942,
      "rowns": 5943,
      "Ġburning": 5944,
      "Ġhonour": 5945,
      "Ġâ²ķâ²Ĺâ²ıâ²£â²Łâ²Ľâ²Łâ²Ļâ²īâ²ĵ": 5946,
      "Ġvillages": 5947,
      "Ġwritings": 5948,
      "Ġâ²¡â²ģâ²£â²ĳâ²īâ²Ľâ²Łâ²¥": 5949,
      "Ġâ²īâ²©â²«â²£â²ģâ²Ľâ²ī": 5950,
      "Ġjourney": 5951,
      "jat": 5952,
      "wbn": 5953,
      "heqa": 5954,
      "êŀ½qr": 5955,
      "Ġâ²Ļâ²ģâ²§": 5956,
      "Ġâ²ģÏ¥Ï£â²ģâ²Ľ": 5957,
      "â²©â²Ń": 5958,
      "ĠÏ«â²ģâ²ĵâ²ī": 5959,
      "Ġâ²ķâ²Łâ²Ĺ": 5960,
      "Ġshines": 5961,
      "ĠÅ¡nw": 5962,
      "Ġêŀ½rt": 5963,
      "ĠÏŃâ²ģâ²Ĺ": 5964,
      "ĠTy": 5965,
      "Ġvain": 5966,
      "Ġâ²Ńâ²ģâ²Ĺ": 5967,
      "Ġknowing": 5968,
      "Ġroad": 5969,
      "Ġâ²¥â²±â²Łâ²©Ï©": 5970,
      "Ġalmonds": 5971,
      "Ġâ²ĳâ²±â²Łâ²©Ï¯": 5972,
      "Ġcongreg": 5973,
      "gm": 5974,
      "ĠYour": 5975,
      "Ġâ²īâ²Ŀ": 5976,
      "Ġdd": 5977,
      "sec": 5978,
      "Ġshout": 5979,
      "hood": 5980,
      "Ġâ²¥â²ģâ²ĥâ²ĥ": 5981,
      "Ġsnf": 5982,
      "Ġwhatever": 5983,
      "hua": 5984,
      "Ġemmer": 5985,
      "setepenre": 5986,
      "â²Ľâ²Łâ²ĥâ²ĵ": 5987,
      "Ġmessenger": 5988,
      "Ġopposite": 5989,
      "hêľ£i": 5990,
      "zkr": 5991,
      "â²£â²Łâ²©": 5992,
      "á¹¯êľ£w": 5993,
      "Ġforce": 5994,
      "uthes": 5995,
      "ĠLady": 5996,
      "ĠPat": 5997,
      "ĠÏ¯Ï©â²ģâ²¡": 5998,
      "Ġâ²īâ²ĵâ²£â²ıâ²Ľâ²ı": 5999,
      "Ġâ²Ľâ²§â²±â²§â²Ľ": 6000,
      "Ġâ²ĵâ²¥Ï«â²ī": 6001,
      "Ġâ²ģâ²£â²Ńâ²ĵ": 6002,
      "Ġlasts": 6003,
      "Ġcharacter": 6004,
      "Ġcurse": 6005,
      "Ġflee": 6006,
      "Ġencamp": 6007,
      "Ġstrengthen": 6008,
      "Ġâ²¡â²ģâ²Ľâ²§â²Łâ²ķâ²£â²ģâ²§â²±â²£": 6009,
      "ĠGentiles": 6010,
      "ex": 6011,
      "mu": 6012,
      "wp": 6013,
      "Äĵ": 6014,
      "Ġbeyond": 6015,
      "amin": 6016,
      "ĠGN": 6017,
      "ĠScript": 6018,
      "Ġtêľ£êŀ½": 6019,
      "Ġabomin": 6020,
      "áºĸrd": 6021,
      "rsy": 6022,
      "Ġelse": 6023,
      "Ġcertainly": 6024,
      "Ġcirc": 6025,
      "ege": 6026,
      "vo": 6027,
      "Ġâ²¡â²£â²īâ²¥": 6028,
      "â²£â²£â²ī": 6029,
      "Ġâ²Ļâ²ģâ²ĵ": 6030,
      "Ġry": 6031,
      "â²Ļâ²Łâ²Ľ": 6032,
      "Ġkite": 6033,
      "ĠSed": 6034,
      "ores": 6035,
      "êľ£bêľ£": 6036,
      "they": 6037,
      "Ġshew": 6038,
      "ĠChentus": 6039,
      "ĠÏ©â²±â²¥â²§â²ī": 6040,
      "Ġâ²Łâ²£â²ħâ²ı": 6041,
      "Ġofficials": 6042,
      "ĠAlmighty": 6043,
      "ĠPhyle": 6044,
      "Ġfná¸ı": 6045,
      "Å¡f": 6046,
      "â²ĥâ²©": 6047,
      "ceived": 6048,
      "Ġ...:": 6049,
      "Ġkw": 6050,
      "Ġâ²ĵâ²ģ": 6051,
      "Ġnbs": 6052,
      "Ġprom": 6053,
      "ĠÅ¡nêŀ½": 6054,
      "ĠEarth": 6055,
      "ustice": 6056,
      "ĠThere": 6057,
      "Ġfollowed": 6058,
      "ĠÏ«â²īâ²ĻÏ«â²Łâ²Ļ": 6059,
      "Ġcondition": 6060,
      "Ġdomain": 6061,
      "ĠJoshua": 6062,
      "Ġâ²¥â²ģâ²ĥâ²ĥâ²ģâ²§â²Łâ²Ľ": 6063,
      "house": 6064,
      "ien": 6065,
      "Ġpfêŀ½": 6066,
      "....": 6067,
      "á¹¯s": 6068,
      "Ġ28": 6069,
      "ĠBook": 6070,
      "â²Ńâ²ī": 6071,
      "Ġâ²Ļâ²ıâ²¡": 6072,
      "Ġpsd": 6073,
      "ĠÏ£â²īâ²¡": 6074,
      "stery": 6075,
      "erent": 6076,
      "Ġpurify": 6077,
      "ĠÏ£â²īâ²ĻÏ£â²ĵ": 6078,
      "â²¥â²ģÏ©â²Ľâ²ĵ": 6079,
      "dêľ£": 6080,
      "Ġtill": 6081,
      "Ġhêľ£w": 6082,
      "Ġinf": 6083,
      "Ġgot": 6084,
      "Ġâ²ķâ²Łâ²ĵ": 6085,
      "Ġâ²Ľâ²Łâ²©Ï©â²Ļ": 6086,
      "Ġlib": 6087,
      "Ġêŀ½mná¹±": 6088,
      "â²Łâ²Łâ²Ľ": 6089,
      "Ġentrance": 6090,
      "Ġremedy": 6091,
      "ocation": 6092,
      "Ġfollower": 6093,
      "Ġhappy": 6094,
      "Ġâ²ģâ²Ļâ²Łâ²Ľâ²ĵ": 6095,
      "Ġêŀ½pn": 6096,
      "Ġâ²Ļâ²ģÏ©â²ĵ": 6097,
      "Ġâ²£â²ģÏ£â²ĵ": 6098,
      "Ġgeneration": 6099,
      "Ġduring": 6100,
      "akleopolis": 6101,
      "sá¸«r": 6102,
      "Ġmir": 6103,
      "inity": 6104,
      "â²Łâ²©â²ĩâ²ī": 6105,
      "â²ķâ²ģâ²ķ": 6106,
      "Ġref": 6107,
      "Ġâ²£â²Ļâ²Ľ": 6108,
      "Ġâ²īâ²§â²ĵ": 6109,
      "ĠSet": 6110,
      "Ġ26": 6111,
      "Ġ29": 6112,
      "Ġthrones": 6113,
      "Ġmistresses": 6114,
      "Ġcommandments": 6115,
      "Ġâ²Ńâ²±â²£â²ģ": 6116,
      "Ġâ²Łâ²©â²ģÏ©â²¥â²ģÏ©â²Ľâ²ĵ": 6117,
      "Ġetc": 6118,
      "ĠChentushi": 6119,
      "Ġign": 6120,
      "Ġsite": 6121,
      "êľ¥l": 6122,
      "â²±â²§â²īâ²ĥ": 6123,
      "thr": 6124,
      "ĠSat": 6125,
      "emes": 6126,
      "Ġâ²Ļâ²Ľâ²§â²Ľ": 6127,
      "ĠJwnt": 6128,
      "Ġbecomes": 6129,
      "achti": 6130,
      "â²Łâ²©â²Ľâ²Łâ²¥": 6131,
      "á¸¥nk": 6132,
      "Ġâ²Łâ²ĽÏ©": 6133,
      "Ġscr": 6134,
      "overn": 6135,
      "Ġiniquities": 6136,
      "Ġâ²Łâ²©â²īâ²£â²ıâ²§â²ī": 6137,
      "Ġcongregation": 6138,
      "â²ģÏ«â²ī": 6139,
      "erve": 6140,
      "Ï©â²ģâ²Ľâ²Ľâ²ıâ²¥": 6141,
      "ĠÏ¥â²ĵâ²§": 6142,
      "ayed": 6143,
      "Ġeman": 6144,
      "ĠÏ£â²ıâ²Ľ": 6145,
      "â²§â²īâ²ĵ": 6146,
      "â²ģâ²¥â²¥â²ī": 6147,
      "ĠChan": 6148,
      "Ġsacrificed": 6149,
      "Ġharvest": 6150,
      "Ġrebel": 6151,
      "Ġâ²ĳâ²£â²Łâ²Ľâ²Łâ²¥": 6152,
      "Min": 6153,
      "bl": 6154,
      "â²Łâ²Ń": 6155,
      "êľ¥Å¡êľ£": 6156,
      "â²£â²ĵâ²ģ": 6157,
      "aded": 6158,
      "â²ŁÏ©â²ĵ": 6159,
      "Ġqêľ£b": 6160,
      "Ġchaos": 6161,
      "Ġark": 6162,
      "Ġgracious": 6163,
      "Ġâ²Ļâ²īâ²¥": 6164,
      "Ġâ²Łâ²ĥ": 6165,
      "Ġfeed": 6166,
      "udj": 6167,
      "â²±â²£â²Łâ²Ľ": 6168,
      "Ġdwelt": 6169,
      "Ġfool": 6170,
      "â²Ľâ²§â²īâ²£â²ī": 6171,
      "Ġâ²Łâ²©â²ıâ²ıâ²ĥ": 6172,
      "Ġveget": 6173,
      "Ġmember": 6174,
      "Ġordinances": 6175,
      "Ġâ²Ľâ²ķâ²Łâ²§â²ķ": 6176,
      "Ġempty": 6177,
      "iers": 6178,
      "ĠY": 6179,
      "Ġhh": 6180,
      "Ġdates": 6181,
      "ĠGo": 6182,
      "Ġáºĸdb": 6183,
      "Ġdog": 6184,
      "Ġâ²Ļâ²Ļâ²ģâ²©â²ģâ²§": 6185,
      "Ġâ²¥â²±â²§â²¡": 6186,
      "ĠPeter": 6187,
      "uphis": 6188,
      "Ġdignified": 6189,
      "Ġembr": 6190,
      "Ġbapt": 6191,
      "Ġaccompl": 6192,
      "Ġconnected": 6193,
      "!)": 6194,
      "zwr": 6195,
      "Ġtaking": 6196,
      "â²īÏ£â²±â²¡â²ī": 6197,
      "onem": 6198,
      "ĠÏ«â²±â²Ļ": 6199,
      "Ġêľ¥d": 6200,
      "Ġêľ¥g": 6201,
      "Ġêľ¥nt": 6202,
      "ĠPas": 6203,
      "Ġâ²ĩâ²ıâ²Ļâ²Łâ²¥": 6204,
      "Ġplan": 6205,
      "Ġqêľ¥á¸¥": 6206,
      "Ġconst": 6207,
      "â²£â²ģâ²ħ": 6208,
      "Ġlikewise": 6209,
      "apes": 6210,
      "Ġpassage": 6211,
      "Ġâ²Ńâ²ģâ²Łâ²¥": 6212,
      "â²ŁÏ«â²Ľâ²ī": 6213,
      "Only": 6214,
      "Ġâ²¡â²īâ²§Ï©â²±â²Łâ²©": 6215,
      "Ġpreceptor": 6216,
      "â²§â²Łâ²Ĺâ²Łâ²¥": 6217,
      "kenu": 6218,
      "zm": 6219,
      "Ġâ²Ļâ²ıâ²ĵ": 6220,
      "á¸ıá¸¥wty": 6221,
      "Ġâ²§â²©": 6222,
      "Ġâ²§â²Łâ²Łâ²§": 6223,
      "aring": 6224,
      "vel": 6225,
      "â²§â²īâ²£â²Łâ²¥": 6226,
      "Ġâ²ĥâ²īâ²Ľ": 6227,
      "Ġzêľ£u": 6228,
      "Ġbelonging": 6229,
      "known": 6230,
      "Ġboat": 6231,
      "Ġâ²¡â²£â²Łâ²ĥ": 6232,
      "Ġqnqn": 6233,
      "Ġdemons": 6234,
      "Ġspells": 6235,
      "Unas": 6236,
      "qdy": 6237,
      "Ġnr": 6238,
      "Ġptw": 6239,
      "asury": 6240,
      "Ġbearer": 6241,
      "ĠÏ£â²ĳ": 6242,
      "Ġstreet": 6243,
      "Ġjew": 6244,
      "â²ģâ²¥â²§": 6245,
      "Ġneeds": 6246,
      "Ġquality": 6247,
      "sued": 6248,
      "ĠÏ£â²Łâ²©Ï£â²Łâ²©": 6249,
      "ĠMystery": 6250,
      "Ġâ²§â²ĥâ²ĥâ²Ł": 6251,
      "ĠÏ©â²ģâ²£â²±": 6252,
      "Ġstretch": 6253,
      "Ġsaints": 6254,
      "ĠPhilistines": 6255,
      "Ġstraight": 6256,
      "ually": 6257,
      "volent": 6258,
      "â²ıâ²ĳ": 6259,
      "Ġâ²Łâ²©â²§â²ī": 6260,
      "ĠIi": 6261,
      "Ġâ²ĩâ²±â²£â²Łâ²Ľ": 6262,
      "Ġáºĸrêŀ½": 6263,
      "á¸ıêľ£á¸ıêľ£": 6264,
      "Ġourselves": 6265,
      "Ġhearing": 6266,
      "Ġmagaz": 6267,
      "Ġteeth": 6268,
      "Ġresult": 6269,
      "Ï£â²ģâ²£â²ī": 6270,
      "Ġbulls": 6271,
      "Ġcharge": 6272,
      "Ġcrafts": 6273,
      "Ġdeclare": 6274,
      "Ġâ²Ļâ²ĥâ²Łâ²Ľ": 6275,
      "sbêľ£": 6276,
      "â²īâ²ĥâ²Łâ²Ĺ": 6277,
      "ester": 6278,
      "Ġêľ£wi": 6279,
      "Ġjug": 6280,
      "thes": 6281,
      "Ġvirgin": 6282,
      "Ġgrab": 6283,
      "Ġâ²±â²Ľâ²ī": 6284,
      "Ġâ²±â²ĥÏ£": 6285,
      "Ġêŀ½bêŀ½": 6286,
      "Ġauthority": 6287,
      "gb": 6288,
      "sq": 6289,
      "Ġsêŀ½p": 6290,
      "Ġwants": 6291,
      "Ġhide": 6292,
      "Ġdry": 6293,
      "Ġcrew": 6294,
      "Ġheed": 6295,
      "Ġlack": 6296,
      "Ġlying": 6297,
      "ases": 6298,
      "Ġâ²ķâ²£â²Ł": 6299,
      "Ġforty": 6300,
      "â²Ĺâ²īâ²Ļ": 6301,
      "Ġâ²¡â²īâ²ĳ": 6302,
      "ember": 6303,
      "Ġâ²«â²ĵ": 6304,
      "ĠCrowns": 6305,
      "Ġsnêľ¥êľ¥": 6306,
      "Ġmayest": 6307,
      "Ġguide": 6308,
      "raim": 6309,
      "Ġdriven": 6310,
      "Ġaffliction": 6311,
      "Ġfinished": 6312,
      "â²ĥâ²§â²±â²§": 6313,
      "ĠHarsies": 6314,
      "Ġbenevolent": 6315,
      "â²ĥâ²©â²§â²īâ²£â²Łâ²¥": 6316,
      "ea": 6317,
      "Ġá¸¥wn": 6318,
      "Ġbeers": 6319,
      "Å¡nw": 6320,
      "ceive": 6321,
      "Ġâ²£Ï£": 6322,
      "Ġâ²£â²Ľâ²Łâ²ĥâ²ī": 6323,
      "ĠPalace": 6324,
      "Ġêŀ½ny": 6325,
      "ĠÏ£â²±Ï£": 6326,
      "ĠNech": 6327,
      "â²ĥâ²±â²ķ": 6328,
      "Ġconfid": 6329,
      "Ġâ²Ļâ²ĵÏ£â²ī": 6330,
      "Ġashamed": 6331,
      "ĠãĢĪ": 6332,
      "Ġskêľ£": 6333,
      "Ġwide": 6334,
      "Ġnsr": 6335,
      "Ġná¸«n": 6336,
      "Ġbal": 6337,
      "á¸«b": 6338,
      "Ġêľ¥wêľ£": 6339,
      "Ġâ²ĩâ²ģâ²ĵ": 6340,
      "â²ĵâ²¥Ï«â²ī": 6341,
      "ĠÏ©â²ģâ²Ļ": 6342,
      "â²Ľâ²Łâ²©Ï¥â²ĵ": 6343,
      "icture": 6344,
      "Ġâ²ĵâ²±Ï©â²ģâ²Ľâ²Ľâ²ıâ²¥": 6345,
      "Ġfinger": 6346,
      "Ġbreakfast": 6347,
      "Best": 6348,
      "dn": 6349,
      "och": 6350,
      "Ġsought": 6351,
      "Ġhnw": 6352,
      "Ġdn": 6353,
      "aros": 6354,
      "â²¥â²±â²§": 6355,
      "Ġá¸«á¸«": 6356,
      "Ġâ²©Ï£â²ı": 6357,
      "Ġstw": 6358,
      "ivity": 6359,
      "ĠMoab": 6360,
      "Ġâ²Ľâ²Łâ²©Ï«â²ī": 6361,
      "Ġâ²Łâ²©â²±â²§â²īâ²ĥ": 6362,
      "â²±â²£Ï©": 6363,
      "Ġeats": 6364,
      "Atum": 6365,
      "ĠNechen": 6366,
      "lwmys": 6367,
      "Ġpunishment": 6368,
      "ĠThrones": 6369,
      "Rise": 6370,
      "hêľ£b": 6371,
      "á¸¥kêľ£": 6372,
      "Ġpet": 6373,
      "Ġbá¸¥": 6374,
      "Ġbêľ¥á¸¥": 6375,
      "Ġâ²Ľâ²ģÏ£â²±": 6376,
      "Ġá¸ıêľ¥m": 6377,
      "Ġreally": 6378,
      "osiris": 6379,
      "ĠÏ«â²±â²±â²£â²ī": 6380,
      "Ġalready": 6381,
      "Ġâ²Ļâ²ıâ²ĵâ²Ľâ²ĵ": 6382,
      "Ġcommandment": 6383,
      "â²Ŀâ²ĵâ²¥": 6384,
      "anged": 6385,
      "Ġwait": 6386,
      "chenes": 6387,
      "Ġâ²ĳâ²ĥâ²ĥâ²ĵâ²Ł": 6388,
      "ĠÏ£â²ģÏ©â²£â²ģâ²ĵ": 6389,
      "ĠLibyan": 6390,
      "ĠÏ©â²īâ²Ĺâ²¡â²ĵâ²¥": 6391,
      "sá¹¯": 6392,
      "uard": 6393,
      "Ġobs": 6394,
      "Ġnail": 6395,
      "Ġrain": 6396,
      "Ġlear": 6397,
      "Ġformed": 6398,
      "utation": 6399,
      "â²Łâ²Ĺâ²ĵ": 6400,
      "akai": 6401,
      "ĠAlex": 6402,
      "Ġêŀ½wá¹±": 6403,
      "Ġâ²«â²±â²§": 6404,
      "ters": 6405,
      "ĠTHE": 6406,
      "ĠCount": 6407,
      "â²Łâ²ĻÏ¯": 6408,
      "â²ĩâ²ı": 6409,
      "â²±â²Łâ²©â²§": 6410,
      "Ġâ²Ńâ²±â²£": 6411,
      "Ġâ²Ļâ²ģâ²ģÏ«â²ī": 6412,
      "Ġconqu": 6413,
      "Ġâ²Ĺâ²Ł": 6414,
      "â²±â²£Ï«": 6415,
      "â²±â²£â²¡": 6416,
      "Ġâ²īâ²¥â²Łâ²Łâ²©": 6417,
      "Ġships": 6418,
      "Ġfamil": 6419,
      "fruits": 6420,
      "Ġâ²£â²īâ²Ļâ²Ľ": 6421,
      "Ġâ²¡â²£â²īâ²¥â²ĥâ²©â²§â²īâ²£â²Łâ²¥": 6422,
      "gers": 6423,
      "loving": 6424,
      "taker": 6425,
      "â²Ļâ²ģâ²Ĺ": 6426,
      "ĠÏ£â²ĥ": 6427,
      "ceed": 6428,
      "Ġâ²Ľâ²ģÏ£â²§": 6429,
      "â²ķâ²Łâ²Ľ": 6430,
      "ifer": 6431,
      "Ġ(?);": 6432,
      "Ġsmote": 6433,
      "Ġenters": 6434,
      "Ġacted": 6435,
      "Ġâ²ķâ²Ĺâ²ıâ²£â²Łâ²¥": 6436,
      "Ġsingle": 6437,
      "Ġdifferent": 6438,
      "Al": 6439,
      "bles": 6440,
      "uef": 6441,
      "ys": 6442,
      "Ġssw": 6443,
      "Ġmixed": 6444,
      "Ġêŀ½êľ£á¸«": 6445,
      "Ġrud": 6446,
      "Ġrising": 6447,
      "aset": 6448,
      "Ġkitten": 6449,
      "ĠLife": 6450,
      "ĠPan": 6451,
      "rwá¸ı": 6452,
      "ĠBar": 6453,
      "â²ĩâ²ģâ²Ĺ": 6454,
      "Ġloaves": 6455,
      "Ġsnsn": 6456,
      "Ġfled": 6457,
      "Ġbêľ£q": 6458,
      "ĠRed": 6459,
      "Ġremains": 6460,
      "Ġcommands": 6461,
      "Ġá¸«ná¹±": 6462,
      "Ġcatch": 6463,
      "Ġâ²Ļâ²ģâ²©â²ģâ²ģ": 6464,
      "Ġâ²¥Ï©â²ģâ²ĵ": 6465,
      "Ġbitter": 6466,
      "Ġâ²¥â²ķâ²īâ²©": 6467,
      "ĠDjeseret": 6468,
      "Ġâ²ģâ²¡â²Łâ²¥â²§â²Łâ²Ĺâ²Łâ²¥": 6469,
      "esterday": 6470,
      "Imen": 6471,
      "pn": 6472,
      "Ġpull": 6473,
      "chn": 6474,
      "ently": 6475,
      "Ġstru": 6476,
      "ĠTr": 6477,
      "Ġwrought": 6478,
      "Ġtherein": 6479,
      "â²«â²Ł": 6480,
      "âĢĵ": 6481,
      "izier": 6482,
      "ĠÏ©â²±â²ĥâ²¥": 6483,
      "Ġâ²¡â²ģâ²£â²ģâ²ĩ": 6484,
      "Ġblessing": 6485,
      "Ġwickedness": 6486,
      "like": 6487,
      "________________": 6488,
      "Ġhung": 6489,
      "Con": 6490,
      "aes": 6491,
      "do": 6492,
      "mis": 6493,
      "qmêľ£": 6494,
      "Ġstêŀ½": 6495,
      "Ġsorrow": 6496,
      "Ġhêľ£y": 6497,
      "â²§â²Ľâ²ī": 6498,
      "Ï©â²¥": 6499,
      "Ġâ²¥â²ĵâ²Ľâ²ĵ": 6500,
      "â²©â²£â²ĵ": 6501,
      "ĠId": 6502,
      "ĠLand": 6503,
      "Ġâ²ıâ²¥": 6504,
      "ĠThus": 6505,
      "olish": 6506,
      "ictory": 6507,
      "ogene": 6508,
      "Ġâ²¡â²īâ²§â²£â²Łâ²¥": 6509,
      "Ġcaretaker": 6510,
      "Ġhearkened": 6511,
      "â²Łâ²©â²ģâ²ģâ²ĥ": 6512,
      "whose": 6513,
      "Ġhomogene": 6514,
      "Ġferry": 6515,
      "Ġhomogeneous": 6516,
      "12": 6517,
      "des": 6518,
      "rnn": 6519,
      "Ġsêŀ½n": 6520,
      "á¸ıá¸ı": 6521,
      "oman": 6522,
      "Ġshape": 6523,
      "Ġrefu": 6524,
      "Ġêŀ½rpy": 6525,
      "ĠPaul": 6526,
      "ĠÏŃâ²ŁÏ«â²ĵ": 6527,
      "â²Ĺâ²ĵâ²Łâ²Ľ": 6528,
      "Ġâ²Ļâ²±â²ģâ²ĥ": 6529,
      "Ġendowed": 6530,
      "ilee": 6531,
      "Ġassist": 6532,
      "righte": 6533,
      "Ġnhp": 6534,
      "Ġdemon": 6535,
      "Ġaffairs": 6536,
      "Ġâ²§â²ģâ²©â²Ł": 6537,
      "Dr": 6538,
      "cest": 6539,
      "êŀ½nb": 6540,
      "â²Ľâ²Ľâ²ī": 6541,
      "Ġâ²Łâ²©â²Łâ²£â²¡": 6542,
      "Ġcure": 6543,
      "antity": 6544,
      "Ġwash": 6545,
      "Ġplag": 6546,
      "Ġtrouble": 6547,
      "Ġthrow": 6548,
      "ishop": 6549,
      "istrum": 6550,
      "ĠHerakleopolis": 6551,
      "Ġâ²¥â²Łâ²©â²§â²±â²Ľ": 6552,
      "ĠAbr": 6553,
      "Ġwalls": 6554,
      "Ġâ²Łâ²©â²īÏ£": 6555,
      "Ġdevour": 6556,
      "while": 6557,
      "Ġoxen": 6558,
      "â²ĥâ²±â²§â²Łâ²¥": 6559,
      "king": 6560,
      "neferet": 6561,
      "tered": 6562,
      "Ġtaught": 6563,
      "Ġph": 6564,
      "Ġêľ¥êľ£b": 6565,
      "Ġshow": 6566,
      "nts": 6567,
      "ĠTen": 6568,
      "ĠJon": 6569,
      "Ġmêľ£y": 6570,
      "Ġmá¸¥á¹±": 6571,
      "Ġreputation": 6572,
      "ĠÅ¡ni": 6573,
      "Ġâ²¡â²īâ²§â²£â²ģ": 6574,
      "Ġconcerned": 6575,
      "ocked": 6576,
      "Ġáºĸêľ£r": 6577,
      "Ġteaching": 6578,
      "Ra": 6579,
      "Welcome": 6580,
      "eh": 6581,
      "nes": 6582,
      "sc": 6583,
      "Ġmur": 6584,
      "Ġhate": 6585,
      "Ġêŀ½êľ¥b": 6586,
      "Ġâ²¡â²ģâ²©â²Ĺâ²Łâ²¥": 6587,
      "Ġfet": 6588,
      "Ġshield": 6589,
      "uring": 6590,
      "ÏŃâ²Łâ²Ľâ²¥": 6591,
      "Ġâ²±â²¥": 6592,
      "oves": 6593,
      "ofret": 6594,
      "ĠRen": 6595,
      "Ġmsdm": 6596,
      "â²Ľâ²Łâ²©Ï¯": 6597,
      "Ġslay": 6598,
      "Ġroom": 6599,
      "Ġâ²¥â²Łâ²©â²±â²Ľ": 6600,
      "Ġseparated": 6601,
      "Not": 6602,
      "Set": 6603,
      "dmá¸ı": 6604,
      "just": 6605,
      "ishes": 6606,
      "Ġkiss": 6607,
      "Ï£â²Łâ²Ļ": 6608,
      "ĠPi": 6609,
      "â²ģâ²Ĺâ²īâ²ĵ": 6610,
      "á¸¥mw": 6611,
      "Ġâ²¥â²ģÏ§": 6612,
      "â²Łâ²ķâ²ĵ": 6613,
      "Ġâ²±Ï«â²Ľ": 6614,
      "ĠKingdom": 6615,
      "Ġthroughout": 6616,
      "Ġâ²ģâ²Ĺâ²±â²Łâ²©â²ĵ": 6617,
      "Ġâ²ģâ²ħâ²ģâ²¡â²ı": 6618,
      "Ġá¸«nf": 6619,
      "ounce": 6620,
      "Ġseventh": 6621,
      "hhhhhhhhhhhhhhhhhhhhhhhhhhhhhhhh": 6622,
      "Ġjoined": 6623,
      "ĠAdam": 6624,
      "great": 6625,
      "ike": 6626,
      "Ġtnw": 6627,
      "Ġtfn": 6628,
      "Ġwives": 6629,
      "Ġâ²Ľâ²ıâ²¥": 6630,
      "Ġêŀ½ty": 6631,
      "Ġfd": 6632,
      "edar": 6633,
      "Ġlies": 6634,
      "Ġlamp": 6635,
      "utef": 6636,
      "Ġka": 6637,
      "Ġshining": 6638,
      "ĠDend": 6639,
      "Ġêľ¥êľ£m": 6640,
      "Ġâ²Łâ²Łâ²©": 6641,
      "Ġâ²§â²Ľâ²Ľâ²Łâ²Łâ²©": 6642,
      "Ġâ²Łâ²ĽÏ§": 6643,
      "Ġpair": 6644,
      "Ġná¸ıs": 6645,
      "\"\"\"\"\"\"\"\"\"\"\"\"\"\"\"\"": 6646,
      "Ġrevealed": 6647,
      "Ġiron": 6648,
      "â²īÏ£": 6649,
      "onis": 6650,
      "Ġdistress": 6651,
      "edies": 6652,
      "Ġêŀ½mw": 6653,
      "Ġsail": 6654,
      "ĠPam": 6655,
      "Ġqnêŀ½": 6656,
      "ÏŃâ²Ł": 6657,
      "ĠWhen": 6658,
      "aps": 6659,
      "Ġshoulder": 6660,
      "Ġowner": 6661,
      "Ġcourse": 6662,
      "ĠInaros": 6663,
      "Ġfigs": 6664,
      "Ġcease": 6665,
      "Ġcrowns": 6666,
      "Ġmonument": 6667,
      "ĠÏ©â²Ĺâ²Ĺâ²Ł": 6668,
      "lmys": 6669,
      "Ã´": 6670,
      "Ġvers": 6671,
      "Ġntr": 6672,
      "Ġband": 6673,
      "Ġâ²Łâ²©â²Ľâ²Łâ²©": 6674,
      "Ġbeef": 6675,
      "ĠÏ£â²ŁÏ«â²Ľâ²ī": 6676,
      "Ġêľ£bw": 6677,
      "elta": 6678,
      "Ġsple": 6679,
      "ĠEp": 6680,
      "â²ĥâ²īâ²¥": 6681,
      "Ġpoint": 6682,
      "Ġwarri": 6683,
      "Ġâ²ģâ²ĥâ²Łâ²§": 6684,
      "Ġtroubled": 6685,
      "?-": 6686,
      "nacht": 6687,
      "port": 6688,
      "â²£â²Ľ": 6689,
      "ifies": 6690,
      "Ġáºĸnn": 6691,
      "Ġ200": 6692,
      "Ġancest": 6693,
      "Ġplans": 6694,
      "Ġâ²§â²ģâ²Ļâ²ī": 6695,
      "â²Łâ²Ļâ²ĵâ²Ľ": 6696,
      "ige": 6697,
      "swêľ£": 6698,
      "â²Ľâ²§â²ŁÏ¥": 6699,
      "Ġâ²¡â²īâ²§â²Łâ²©â²ģâ²ģâ²ĥ": 6700,
      "Ġassigned": 6701,
      "Ġsfá¸«": 6702,
      "puaut": 6703,
      "lic": 6704,
      "rmá¹¯": 6705,
      "Ġochre": 6706,
      "ĠsÅ¡têľ£": 6707,
      "Ġâ²Ľâ²Łâ²īâ²ĵ": 6708,
      "Ġrr": 6709,
      "Ġcri": 6710,
      "â²ĥâ²ıâ²§": 6711,
      "Ï£â²ıâ²Ľ": 6712,
      "Ġsav": 6713,
      "ĠNun": 6714,
      "ĠMed": 6715,
      "â²ģâ²£â²ĵâ²¥": 6716,
      "acher": 6717,
      "ĠwrÅ¡": 6718,
      "Ġchannel": 6719,
      "Ġsmd": 6720,
      "Ġâ²Ļâ²¡â²ģ": 6721,
      "drink": 6722,
      "cumc": 6723,
      "Ġassembly": 6724,
      "ĠEphraim": 6725,
      "onemason": 6726,
      "him": 6727,
      "lime": 6728,
      "Ġgir": 6729,
      "Ġlau": 6730,
      "Ġaside": 6731,
      "uli": 6732,
      "spd": 6733,
      "Ġentr": 6734,
      "Ï©â²ĵâ²§": 6735,
      "Ġâ²īâ²©Ï£â²ģâ²Ľ": 6736,
      "Ġrelation": 6737,
      "Ġreported": 6738,
      "Ġgarden": 6739,
      "ĠDendara": 6740,
      "Ġmh": 6741,
      "Ġmoved": 6742,
      "Ġpowers": 6743,
      "Ġlaz": 6744,
      "â²©â²ĵâ²Ľ": 6745,
      "Ġreproach": 6746,
      "Ġêŀ½wnw": 6747,
      "Ġzbi": 6748,
      "ĠÏŃâ²Łâ²¥â²ĵ": 6749,
      "â²ıâ²£â²ģ": 6750,
      "Ġâ²ĳâ²±": 6751,
      "Ġpasses": 6752,
      "â²įâ²ģ": 6753,
      "Ġsublime": 6754,
      "Ġprayer": 6755,
      "Ġhyn": 6756,
      "Ġmourning": 6757,
      "Bar": 6758,
      "Turn": 6759,
      "Ġwpy": 6760,
      "Ġâ²Ļâ²ģâ²Ĺ": 6761,
      "Ġêľ£q": 6762,
      "Hear": 6763,
      "Ġconse": 6764,
      "Ġmnmn": 6765,
      "ĠUjat": 6766,
      "Beast": 6767,
      "Ġâ²Ļâ²Łâ²©Ï©": 6768,
      "Ġwá¸ıb": 6769,
      "Ġâ²§â²ģâ²ĵâ²Ł": 6770,
      "Ġâ²īâ²ĥâ²Łâ²§": 6771,
      "Ġweeping": 6772,
      "Ġtroops": 6773,
      "Ġchapel": 6774,
      "Ġtestimony": 6775,
      "Good": 6776,
      "Open": 6777,
      "Ġâ²¥â²ģâ²Ĺ": 6778,
      "Ġkites": 6779,
      "ĠÏ§â²±â²§â²īâ²ĥ": 6780,
      "á¸¥rw": 6781,
      "aste": 6782,
      "Ġwêľ¥i": 6783,
      "Ġwêľ£i": 6784,
      "Ġêľ¥êľ£i": 6785,
      "Ġmnq": 6786,
      "Ġclay": 6787,
      "Ġâ²¯â²ģâ²Ĺ": 6788,
      "Ġrests": 6789,
      "ĠÏ£â²ĵâ²¡â²ī": 6790,
      "Ġdwellers": 6791,
      "Ġ(??": 6792,
      "Ġcompleted": 6793,
      "Ġá¸¥bnn": 6794,
      "will": 6795,
      "inion": 6796,
      "Ġinspect": 6797,
      "ĠÏ©â²©â²Ĺâ²ı": 6798,
      "â²¥â²Ľâ²Łâ²Łâ²©": 6799,
      "Ï«â²Łâ²Ľâ²¥": 6800,
      "uted": 6801,
      "ĠAss": 6802,
      "â²ĥâ²Łâ²Ĺâ²Łâ²¥": 6803,
      "Ġdost": 6804,
      ").\"": 6805,
      "Ġarch": 6806,
      "Ġâ²Ĺâ²īâ²©": 6807,
      "ĠThin": 6808,
      "Ġbêľ£s": 6809,
      "Ġworkers": 6810,
      "ĠNefert": 6811,
      "Ġrejected": 6812,
      "Ġâ²¡â²ģÏ©â²Łâ²©": 6813,
      "Ġpillar": 6814,
      "Ġwonder": 6815,
      "Ġdesolate": 6816,
      "Le": 6817,
      "sêľ¥ná¸«": 6818,
      "Ġws": 6819,
      "Ġmm": 6820,
      "Ġreign": 6821,
      "ĠArs": 6822,
      "ĠSun": 6823,
      "Ġ27": 6824,
      "ĠCher": 6825,
      "Ġnobles": 6826,
      "Ġmêľ£êŀ½": 6827,
      "Ġfalls": 6828,
      "ĠÏ£â²īâ²Ľâ²ģ": 6829,
      "Ġcalam": 6830,
      "Ġsoldiers": 6831,
      "â²¯â²ĵâ²¥": 6832,
      "ĠWadjet": 6833,
      "Ġfulfilled": 6834,
      "â²¥â²Ľâ²Łâ²Łâ²©â²¥": 6835,
      "Ġmus": 6836,
      "rem": 6837,
      "reed": 6838,
      "atch": 6839,
      "itions": 6840,
      "Ġâ²Łâ²©â²Ľâ²§": 6841,
      "Ġdêľ£b": 6842,
      "Ġdawn": 6843,
      "â²ķâ²ģâ²£": 6844,
      "Ġstab": 6845,
      "ĠSaint": 6846,
      "Ġâ²Ļâ²ģÏ£": 6847,
      "Ġfeather": 6848,
      "ended": 6849,
      "Ġhorns": 6850,
      "Ġgenerations": 6851,
      "â²¥â²±â²§â²Ļ": 6852,
      "oot": 6853,
      "tain": 6854,
      "Ġwake": 6855,
      "Ġmêŀ½n": 6856,
      "â²Ľâ²ģâ²©": 6857,
      "Ġpá¸«êľ£": 6858,
      "Ġâ²ķâ²ģâ²Ľ": 6859,
      "ĠHen": 6860,
      "Ġswá¸¥": 6861,
      "ĠEd": 6862,
      "Ġâ²ĳâ²ģâ²ĵ": 6863,
      "Ġdeben": 6864,
      "Ġmná¸¥": 6865,
      "ĠRes": 6866,
      "Ġâ²Ļâ²Ľâ²§â²ģâ²§": 6867,
      "Ġâ²¥â²Ľâ²§â²ī": 6868,
      "Ġcreates": 6869,
      "Ï£â²ģÏ«â²ī": 6870,
      "Ġâ²īâ²©â²ģâ²ħ": 6871,
      "Ġpurity": 6872,
      "Ġâ²īâ²ķÏ£â²ģâ²Ľ": 6873,
      "Ġmessengers": 6874,
      "ĠImiut": 6875,
      "Ġrudder": 6876,
      "Ġhab": 6877,
      "Ġroll": 6878,
      "Ġá¸¥ri": 6879,
      "ĠÏŃâ²ģ": 6880,
      "Ġá¹¯zi": 6881,
      "Ġdeep": 6882,
      "Ġâ²ħâ²£â²ģ": 6883,
      "Ġexper": 6884,
      "Ġfew": 6885,
      "Ġâ²ģâ²§Ï©â²ıâ²§": 6886,
      "Ġsealer": 6887,
      "Ġrwd": 6888,
      "Ġná¸«b": 6889,
      "yyyyyyyy": 6890,
      "Ġtriumph": 6891,
      "Ġfamilies": 6892,
      "\"),": 6893,
      "Woe": 6894,
      "ma": 6895,
      "ted": 6896,
      "Ġtears": 6897,
      "Ġâ²¡â²ıâ²©â²ī": 6898,
      "á¸«êľ£êľ¥": 6899,
      "Ġâ²Łâ²©â²īâ²Ļ": 6900,
      "Ġâ²§â²Łâ²©â²Ľâ²Łâ²¥": 6901,
      "Ġisland": 6902,
      "Ġêľ¥y": 6903,
      "â²ķâ²ĵ": 6904,
      "Ġêŀ½rw": 6905,
      "ĠJere": 6906,
      "Ġsmite": 6907,
      "ĠDen": 6908,
      "Ġsêľ£á¸«": 6909,
      "Ġnamely": 6910,
      "bey": 6911,
      "zêľ£u": 6912,
      "Ġâ²ģâ²£â²īÏ£â²ģâ²Ľ": 6913,
      "Ġâ²¥â²ıÏ©": 6914,
      "fruit": 6915,
      "Ġtouch": 6916,
      "Ġthighs": 6917,
      "cer": 6918,
      "sá¸¥tp": 6919,
      "zen": 6920,
      "Ġnet": 6921,
      "Ġpicture": 6922,
      "Ġbab": 6923,
      "Ġfly": 6924,
      "Ġfought": 6925,
      "Ġâ²§â²£â²ģ": 6926,
      "ĠÏ©â²ķâ²Ł": 6927,
      "Ï©â²Ľ": 6928,
      "ĠÏ¥â²ģâ²ĵ": 6929,
      "Ġreck": 6930,
      "ĠÏ©â²ĵâ²£â²ıâ²Ľâ²ı": 6931,
      "Here": 6932,
      "Ġâ²ģâ²Ľâ²ħ": 6933,
      "Ġá¸ıdf": 6934,
      "â²ģâ²©â²£â²Łâ²¥": 6935,
      "Ġâ²¥â²ģâ²ĥâ²ģ": 6936,
      "aph": 6937,
      "Ġ36": 6938,
      "Ġclosed": 6939,
      "eneral": 6940,
      "Ġuttered": 6941,
      "Ġsfá¹¯": 6942,
      "gods": 6943,
      "Ġhurry": 6944,
      "Ġrepeated": 6945,
      "ĠGolden": 6946,
      "má¹¯k": 6947,
      "Ġrepentance": 6948,
      "Ġabhorrence": 6949,
      "Ġlibation": 6950,
      "Ġignor": 6951,
      "cu": 6952,
      "cor": 6953,
      "Ġmed": 6954,
      "Ġbul": 6955,
      "Ġâ²§â²Łâ²ĵ": 6956,
      "Ġyesterday": 6957,
      "Ġâ²¥â²Łâ²Ĺ": 6958,
      "Å¡ni": 6959,
      "stri": 6960,
      "Ġprostr": 6961,
      "ilver": 6962,
      "ĠNep": 6963,
      "oked": 6964,
      "Ġjub": 6965,
      "Ġvision": 6966,
      "Ġacqu": 6967,
      "ĠChal": 6968,
      "Ġdesp": 6969,
      "attered": 6970,
      "Ġfarm": 6971,
      "Ġgrie": 6972,
      "?,": 6973,
      "Im": 6974,
      "Put": 6975,
      "oeris": 6976,
      "Ġwná¸«": 6977,
      "rer": 6978,
      "itary": 6979,
      "â²Ļâ²ĵâ²ģâ²¥": 6980,
      "Ġdrew": 6981,
      "ĠÏ©â²Łâ²§": 6982,
      "á¹¯y": 6983,
      "Ġep": 6984,
      "Ġêľ¥á¸«m": 6985,
      "Ġâ²ķâ²£â²ĵâ²Ľâ²ī": 6986,
      "adem": 6987,
      "alls": 6988,
      "Ġplate": 6989,
      "â²¡â²īâ²§": 6990,
      "igs": 6991,
      "siri": 6992,
      "Ġfriends": 6993,
      "Ġscar": 6994,
      "Ġendure": 6995,
      "Ġoldest": 6996,
      "Ġsinger": 6997,
      "Ġptrêŀ½": 6998,
      "Ġturns": 6999,
      "ĠÏ©â²ĵâ²±â²±": 7000,
      "â²Łâ²Łâ²Ľâ²ī": 7001,
      "Ġptwlmys": 7002,
      "pos": 7003,
      "qs": 7004,
      "sue": 7005,
      "êŀ½êľ£w": 7006,
      "Ġna": 7007,
      "á¹¯wt": 7008,
      "â²Ĺâ²īâ²ĵ": 7009,
      "Ġshort": 7010,
      "Ġweap": 7011,
      "Ġâ²īÏ©â²Łâ²©â²ī": 7012,
      "athan": 7013,
      "Ġâ²Ļâ²īâ²£â²ĵâ²§": 7014,
      "Ġâ²Ľâ²§â²īâ²Ľ": 7015,
      "erved": 7016,
      "Ġâ²Łâ²Ļ": 7017,
      "Ġá¸¥wy": 7018,
      "Ġsinners": 7019,
      "ĠCheops": 7020,
      "Ġhears": 7021,
      "Ġroof": 7022,
      "Ġfoolish": 7023,
      "Ġdelight": 7024,
      "Ġâ²ĩâ²ĵâ²ģâ²ĥâ²Łâ²Ĺâ²Łâ²¥": 7025,
      "â²Ľâ²ĳâ²ŁÏ¥": 7026,
      "ĠPerfect": 7027,
      "Ġgovernment": 7028,
      "Ġsettle": 7029,
      "Ġâ²¥â²ŁÏŃâ²Ľâ²ĵ": 7030,
      "lied": 7031,
      "yri": 7032,
      "Ġhorn": 7033,
      "êľ¥pr": 7034,
      "á¸«pÅ¡": 7035,
      "Ġgaz": 7036,
      "irt": 7037,
      "Ġur": 7038,
      "Ġâ²īâ²§â²Łâ²§": 7039,
      "ĠHut": 7040,
      "ĠEye": 7041,
      "ĠÏ£â²±â²Ľâ²ī": 7042,
      "Ġgrass": 7043,
      "ously": 7044,
      "bell": 7045,
      "Ġknoweth": 7046,
      "Ġsá¸«n": 7047,
      "Ġaccus": 7048,
      "Ġunrighte": 7049,
      "pses": 7050,
      "aios": 7051,
      "Ġjudgments": 7052,
      "ĠMery": 7053,
      "Ġappearing": 7054,
      "Ġêľ¥rf": 7055,
      "Ġexists": 7056,
      "Ġceased": 7057,
      "ĠÏ«â²ģÏ«â²ĵ": 7058,
      "Ġbrick": 7059,
      "ĠVenerable": 7060,
      "Ġsuperior": 7061,
      "Ġancient": 7062,
      "â²īÏ£Ï«â²ī": 7063,
      "Ġancestors": 7064,
      "Or": 7065,
      "ipp": 7066,
      "lands": 7067,
      "qy": 7068,
      "â²§â²ĵ": 7069,
      "ĠÏ©â²£â²ģ": 7070,
      "ĠÏ©â²Łâ²ĵ": 7071,
      "ĠApp": 7072,
      "Ġstir": 7073,
      "ĠNa": 7074,
      "ĠMar": 7075,
      "ulation": 7076,
      "êľ£bá¸ıw": 7077,
      "â²Ļâ²ģâ²£â²ī": 7078,
      "â²ĵâ²Ľâ²ģ": 7079,
      "ĠUnder": 7080,
      "aved": 7081,
      "â²ģâ²¥â²ĵ": 7082,
      "Ġpassing": 7083,
      "Ġrecited": 7084,
      "meat": 7085,
      "Ġsuffers": 7086,
      "Ġfigures": 7087,
      "Ġrebu": 7088,
      "Ġanimals": 7089,
      "Ġcompassion": 7090,
      "Ġâ²ĽÏ©â²£â²ıâ²ĵ": 7091,
      "Ġmagazine": 7092,
      "Ġâ²īâ²©â²ģâ²ħâ²ħâ²ī": 7093,
      "Variant": 7094,
      "horus": 7095,
      "named": 7096,
      "ina": 7097,
      "â²§â²ģâ²ĵ": 7098,
      "ative": 7099,
      "asp": 7100,
      "â²¡â²Ľâ²īâ²©": 7101,
      "Ġztêŀ½": 7102,
      "Ġvan": 7103,
      "ountain": 7104,
      "ĠÏ«â²ĵâ²Ļâ²ĵ": 7105,
      "ishi": 7106,
      "Ġadorn": 7107,
      "Ġentire": 7108,
      "â²Łâ²©â²¥â²ĵâ²ģ": 7109,
      "obl": 7110,
      "mias": 7111,
      "Ġbarn": 7112,
      "Ġcarob": 7113,
      "nmt": 7114,
      "Ġbreathe": 7115,
      "Ġwdá¸¥": 7116,
      "Ġremembered": 7117,
      "Ġâ²ķâ²ģâ²ķâ²ĵâ²ģ": 7118,
      "Ġsêľ¥á¸¥êľ¥": 7119,
      "Ġwept": 7120,
      "Ġhr": 7121,
      "êľ¥tá¸«": 7122,
      "Ġfurn": 7123,
      "Ġâ²Ļâ²ıâ²£": 7124,
      "Ġâ²Ļâ²Łâ²ķÏ©": 7125,
      "Ġdb": 7126,
      "Ġinfl": 7127,
      "Ġâ²¥â²Ĺ": 7128,
      "ĠÏ£â²ģâ²£": 7129,
      "two": 7130,
      "êľ£bá¸ı": 7131,
      "ĠBal": 7132,
      "Ġâ²īÏ©â²Łâ²§â²ī": 7133,
      "Ġâ²īÏ«â²±â²£Ï©": 7134,
      "ĠThat": 7135,
      "Ġpregn": 7136,
      "Ġseparate": 7137,
      "ĠÏ£â²īâ²Ļâ²Ļâ²Ł": 7138,
      "Ġsteps": 7139,
      "â²Ļâ²Łâ²©â²ıâ²Ĺ": 7140,
      "Ġâ²Ļâ²Łâ²©â²Ľâ²ķ": 7141,
      "Ġâ²§â²ģâ²ĹÏŃâ²Ł": 7142,
      "Ġâ²¡â²ĵâ²¥â²§â²īâ²©â²ī": 7143,
      "kom": 7144,
      "mut": 7145,
      "net": 7146,
      "Ġêŀ½pt": 7147,
      "â²£â²īâ²Ľ": 7148,
      "â²£â²Łâ²«": 7149,
      "Ġâ²ģâ²©â²Ĺâ²ı": 7150,
      "Ġgird": 7151,
      "Ġâ²ĵâ²±â²Ľ": 7152,
      "Ġâ²£â²Łâ²ķÏ©": 7153,
      "ĠNinet": 7154,
      "Ġá¸¥ms": 7155,
      "Ġthrown": 7156,
      "pieces": 7157,
      "tier": 7158,
      "Ġdiadem": 7159,
      "Ġwax": 7160,
      "ferred": 7161,
      "Ġgreets": 7162,
      "Ġthirty": 7163,
      "Ġemanations": 7164,
      "qbá¸¥": 7165,
      "Ġwin": 7166,
      "Ġnur": 7167,
      "â²§â²Łâ²¥": 7168,
      "Ġcre": 7169,
      "Ġêľ¥qêľ£": 7170,
      "lect": 7171,
      "Ġrede": 7172,
      "ná¸«b": 7173,
      "ĠÏŃâ²Ĺ": 7174,
      "une": 7175,
      "Ġâ²§â²ģâ²Ļ": 7176,
      "â²Łâ²ĻÏ§â²īâ²Ļ": 7177,
      "Ġlost": 7178,
      "â²Ńâ²Ļâ²ģâ²Ĺ": 7179,
      "geance": 7180,
      "Ġ35": 7181,
      "endes": 7182,
      "Ġprotector": 7183,
      "Ġmsá¸¥": 7184,
      "Ġcalls": 7185,
      "ĠÏŃâ²īâ²¡â²ı": 7186,
      "ĠÏ§â²ģÏ«â²±": 7187,
      "Ġnobleman": 7188,
      "Ġcouncil": 7189,
      "Ġmá¸ıá¸¥": 7190,
      "Ġâ²Ļâ²īâ²§â²ģâ²Ľâ²Łâ²ĵâ²ģ": 7191,
      "Ġjewel": 7192,
      "Ġredeem": 7193,
      "\"(": 7194,
      "Dj": 7195,
      "netjer": 7196,
      "uct": 7197,
      "êľ£á¸¥": 7198,
      "Ġsntr": 7199,
      "inoe": 7200,
      "Ġhind": 7201,
      "Ġtot": 7202,
      "ĠSel": 7203,
      "ĠSchenes": 7204,
      "oph": 7205,
      "Ġjack": 7206,
      "ector": 7207,
      "á¸ıêľ£i": 7208,
      "Ġâ²ĳâ²±â²Ľ": 7209,
      "Its": 7210,
      "Ġshouldest": 7211,
      "Ġslain": 7212,
      "angu": 7213,
      "Ġâ²¥â²Łâ²Łâ²©â²§â²Ľ": 7214,
      "ĠChentishi": 7215,
      "Ġcaptivity": 7216,
      "Ġembalm": 7217,
      "Ġcorresp": 7218,
      "ĠÏ£â²Ļâ²Ļâ²Ł": 7219,
      "Ġhunger": 7220,
      "Ġâ²§â²¥â²ģâ²ĥ": 7221,
      "Ġstorm": 7222,
      "overnment": 7223,
      "Ġreckon": 7224,
      "iod": 7225,
      "polis": 7226,
      "wnw": 7227,
      "Ġwond": 7228,
      "Ġcap": 7229,
      "Ġcoff": 7230,
      "Ġâ²§â²ı": 7231,
      "asse": 7232,
      "...\"": 7233,
      "irits": 7234,
      "Ġkr": 7235,
      "thorn": 7236,
      "enti": 7237,
      "ĠTitel": 7238,
      "Ġgreatest": 7239,
      "Ġqsn": 7240,
      "Ġsayings": 7241,
      "Ġâ²±â²§": 7242,
      "elling": 7243,
      "Ġmoreover": 7244,
      "Ġrecord": 7245,
      "teen": 7246,
      "ĠÏ«â²ĵâ²ĽÏŃâ²Łâ²Ľâ²¥": 7247,
      "Ġfollowers": 7248,
      "anchu": 7249,
      "Å¡nêľ¥": 7250,
      "Ġharp": 7251,
      "Ġgeneral": 7252,
      "Ġvengeance": 7253,
      "Ġcontinued": 7254,
      "Ġconsecr": 7255,
      "Have": 7256,
      "ker": 7257,
      "law": 7258,
      "Â§": 7259,
      "Ġtied": 7260,
      "êľ£Å¡r": 7261,
      "Ġsor": 7262,
      "reme": 7263,
      "orp": 7264,
      "Ġêŀ½nt": 7265,
      "Ġtom": 7266,
      "arling": 7267,
      "othes": 7268,
      "imen": 7269,
      "Ġá¸«y": 7270,
      "Ġâ²Ľâ²īâ²£â²ī": 7271,
      "â²Łâ²Ĺâ²Łâ²ħ": 7272,
      "ĠMaster": 7273,
      "acia": 7274,
      "ĠEn": 7275,
      "unit": 7276,
      "Ġjb": 7277,
      "Ġvictor": 7278,
      "Ġscript": 7279,
      "grá¸¥": 7280,
      "Ġmerc": 7281,
      "Ġhides": 7282,
      "Ġforeigners": 7283,
      "Ġâ²Ļâ²¡â²£â²§â²£â²ī": 7284,
      "Ġproduce": 7285,
      "ĠsÅ¡p": 7286,
      "Ġobject": 7287,
      "Ġinjury": 7288,
      "Protect": 7289,
      "Speak": 7290,
      "Will": 7291,
      "ium": 7292,
      "zed": 7293,
      "Ġmsw": 7294,
      "á¸«pi": 7295,
      "Ġri": 7296,
      "â²ķâ²ģâ²§â²ģ": 7297,
      "â²ķâ²ĵâ²ģâ²¥": 7298,
      "amutef": 7299,
      "Ġstable": 7300,
      "ĠSok": 7301,
      "â²ĳâ²ģ": 7302,
      "ĠÏ§â²Łâ²ĻÏ§â²īâ²Ļ": 7303,
      "Ġâ²īâ²£â²ıâ²Łâ²©": 7304,
      "ĠBread": 7305,
      "Ġwêľ¥á¸¥": 7306,
      "â²ĵâ²ķâ²ĵ": 7307,
      "Ï£â²±â²¡â²ĵ": 7308,
      "Ġá¸¥zz": 7309,
      "Ã¤ck": 7310,
      "Ġfaithful": 7311,
      "ĠSeschem": 7312,
      "Ġlotus": 7313,
      "ĠEsau": 7314,
      "Ġbenef": 7315,
      "More": 7316,
      "bet": 7317,
      "ctr": 7318,
      "sá¸¥m": 7319,
      "Åį": 7320,
      "Ġach": 7321,
      "Ġscepter": 7322,
      "Ġnon": 7323,
      "rec": 7324,
      "esi": 7325,
      "Ġá¸ımêľ¥": 7326,
      "ĠLes": 7327,
      "opt": 7328,
      "â²Łâ²Łâ²©Ï£": 7329,
      "Ġâ²Ľâ²īâ²Ļâ²ı": 7330,
      "Ġâ²ĥâ²īâ²Ĺ": 7331,
      "Ġá¸ıdi": 7332,
      "osts": 7333,
      "ĠÏ£â²īâ²ĥâ²ĵâ²±": 7334,
      "Ġjudged": 7335,
      "ĠÏ©â²ĥâ²±â²¥": 7336,
      "Chontamenti": 7337,
      "â²Ļâ²Ľâ²Ľ": 7338,
      "Stonemason": 7339,
      "Ġsolid": 7340,
      "Ġsixth": 7341,
      "Ġâ²Ļâ²ĵâ²Ľâ²ī": 7342,
      "â²ķâ²Ĺâ²ıâ²£â²Łâ²Ľ": 7343,
      "Ġundead": 7344,
      "ssssssss": 7345,
      "ĠÏ©â²ĳâ²ı": 7346,
      "Ġrejoiced": 7347,
      "Father": 7348,
      "giver": 7349,
      "lam": 7350,
      "month": 7351,
      "ĠThen": 7352,
      "Ġtail": 7353,
      "á¸¥bs": 7354,
      "rect": 7355,
      "â²Ľâ²±â²Łâ²©â²ĵ": 7356,
      "Ġble": 7357,
      "Ġhru": 7358,
      "Ġdress": 7359,
      "Ġá¸¥si": 7360,
      "Ġá¸¥qr": 7361,
      "ĠÏ©â²ģâ²Ĺâ²ģ": 7362,
      "Ġheld": 7363,
      "Å¡t": 7364,
      "though": 7365,
      "Ġâ²ĩâ²ģâ²Ľ": 7366,
      "Ġêľ£r": 7367,
      "ourse": 7368,
      "resent": 7369,
      "Ġherself": 7370,
      "Ġclear": 7371,
      "Ġsubst": 7372,
      "ĠÏ©â²§â²Łâ²Łâ²©â²ī": 7373,
      "Ġglorified": 7374,
      "harmed": 7375,
      "Ġbeside": 7376,
      "Ġcolor": 7377,
      "Ġpopularity": 7378,
      "Ġassociated": 7379,
      "Ġconfidant": 7380,
      "Ġâ²¥â²ķâ²īâ²©â²Łâ²¥": 7381,
      "Ġhungry": 7382,
      "Ġpregnant": 7383,
      ",)": 7384,
      "go": 7385,
      "sical": 7386,
      "reak": 7387,
      "Ġthorn": 7388,
      "Ġâ²ģÏ«â²Ł": 7389,
      "Ġ...-": 7390,
      "êŀ½rr": 7391,
      "Ġêŀ½wr": 7392,
      "Ġwast": 7393,
      "acles": 7394,
      "aged": 7395,
      "Ġrnpi": 7396,
      "â²ĵâ²Ľâ²ģâ²Ļ": 7397,
      "Ġtrave": 7398,
      "Ġá¸«ru": 7399,
      "spe": 7400,
      "Ġcommun": 7401,
      "othis": 7402,
      "Ġdesired": 7403,
      "á¸¥nq": 7404,
      "Ġcreate": 7405,
      "ĠÏ©â²ĵâ²§â²Łâ²©â²±": 7406,
      "figure": 7407,
      "ĠQueen": 7408,
      "Ġfellow": 7409,
      "ĠGaues": 7410,
      "Ġbases": 7411,
      "Ġsoles": 7412,
      "Ġâ²īâ²ĻÏ©â²ĵâ²§": 7413,
      "Ġestablish": 7414,
      "Ġcontrol": 7415,
      "Ġfortress": 7416,
      "Ġlamentation": 7417,
      "Ġfifth": 7418,
      "Ġidols": 7419,
      "Ġâ²¥â²ģâ²ĥâ²ģâ²±â²ĳ": 7420,
      "Eternity": 7421,
      "Sem": 7422,
      "part": 7423,
      "Ġnine": 7424,
      "Ġdeter": 7425,
      "this": 7426,
      "Ġcometh": 7427,
      "ĠÏ¯Ï©â²Ł": 7428,
      "uler": 7429,
      "ĠOrn": 7430,
      "Ġwrd": 7431,
      "ĠÏ£â²±â²±â²§": 7432,
      "Ġâ²§â²ģâ²Ŀâ²ĵâ²¥": 7433,
      "Ġsuction": 7434,
      "Ġperiod": 7435,
      "Ġbutcher": 7436,
      "Ġpsá¸¥": 7437,
      "Ġêŀ½swt": 7438,
      "Ġâ²ķâ²ģÏ¯": 7439,
      "Ġá¸¥smn": 7440,
      "ĠÏ©â²ŁÏ«": 7441,
      "Ġpleasure": 7442,
      "angers": 7443,
      "Ġcomplain": 7444,
      "Ġdêľ£t": 7445,
      "ĠSamuel": 7446,
      "Ġâ²īâ²ĥâ²ıâ²Ĺ": 7447,
      "Ġâ²Ļâ²Łâ²¥â²§â²ī": 7448,
      "ĠEdfu": 7449,
      "Ġcreep": 7450,
      ",--": 7451,
      "iet": 7452,
      "Ġsnn": 7453,
      "Ġâ²ĻÏ©": 7454,
      "Ġrnn": 7455,
      "Ġâ²Łâ²©â²ĥâ²ı": 7456,
      "ĠÏ¥â²Łâ²§": 7457,
      "Ġformer": 7458,
      "Ġá¸«b": 7459,
      "ĠArt": 7460,
      "ilation": 7461,
      "ĠÏ§â²Łâ²ĳ": 7462,
      "Ġbrass": 7463,
      "Ġâ²ģâ²Ľâ²Łâ²Ļâ²Łâ²¥": 7464,
      "Ġvon": 7465,
      "(?):": 7466,
      "Ġâ²īâ²§â²īâ²§â²Ľâ²ī": 7467,
      "spelta": 7468,
      "Ġ300": 7469,
      "Ġâ²īâ²ĳâ²ĥâ²ıâ²§": 7470,
      "hedeti": 7471,
      "ierak": 7472,
      "Ġsealed": 7473,
      "Ġpurified": 7474,
      "Ġvillage": 7475,
      "Ġfinely": 7476,
      "Ġemerged": 7477,
      "Ġptlwmys": 7478,
      "Remedies": 7479,
      "chechecheche": 7480,
      "Ġsubjects": 7481,
      "raeus": 7482,
      "Ġencamped": 7483,
      "ĠArsinoe": 7484,
      "Ġâ²īâ²©â²ģâ²ħâ²ħâ²īâ²Ĺâ²ĵâ²Łâ²Ľ": 7485,
      "kh": 7486,
      "ris": 7487,
      "sst": 7488,
      "Ãª": 7489,
      "â²īâ²ĥ": 7490,
      "Ġsnd": 7491,
      "Ġsad": 7492,
      "Ġâ²Ľâ²Ľâ²ı": 7493,
      "â²ĵâ²ıâ²Ĺ": 7494,
      "Ġbone": 7495,
      "Ġbêľ£bêľ£": 7496,
      "Ġhat": 7497,
      "Ġritual": 7498,
      "Ġdried": 7499,
      "Ġcakes": 7500,
      "otal": 7501,
      "â²ķâ²Łâ²©": 7502,
      "Ġêŀ½mnt": 7503,
      "Ġsttr": 7504,
      "Ġzw": 7505,
      "Ġâ²ĳâ²Ļâ²ıâ²ĵ": 7506,
      "Ġamulet": 7507,
      "ĠÏ«â²±â²£": 7508,
      "Ġâ²ıâ²¡": 7509,
      "Ġgoods": 7510,
      "Ġprovide": 7511,
      "ĠDjeme": 7512,
      "without": 7513,
      "Ġsá¸ıb": 7514,
      "Ġapost": 7515,
      "Ġchamberl": 7516,
      "Ġdistribut": 7517,
      "Ġshepherds": 7518,
      "Ġâ²¥â²Łâ²ĥâ²§": 7519,
      "Ġhosts": 7520,
      "Ġoriginal": 7521,
      "Ġsharp": 7522,
      "ĠÏ©â²ģâ²Ļâ²ıâ²Ľ": 7523,
      "Ġtotal": 7524,
      "fi": 7525,
      "joice": 7526,
      "â²Ļâ²ģâ²ĵ": 7527,
      "Ġdate": 7528,
      "Ġstore": 7529,
      "ĠNofret": 7530,
      "emy": 7531,
      "antly": 7532,
      "Ġspace": 7533,
      "Ġspear": 7534,
      "efetj": 7535,
      "ĠUpuaut": 7536,
      "Ġâ²±â²ĵâ²Ĺâ²ĵ": 7537,
      "Ġâ²Ĺâ²ģâ²ķ": 7538,
      "Ġaffect": 7539,
      "Å¡rêŀ½": 7540,
      "Ġglow": 7541,
      "people": 7542,
      "Ġâ²ĵâ²Łâ²©â²ĩâ²ģâ²¥": 7543,
      "Ġconsisting": 7544,
      "Ġcarrying": 7545,
      "Ġhonor": 7546,
      "Ġâ²īâ²Ļâ²ĳâ²Ł": 7547,
      "Ġâ²īâ²Ĺâ²Łâ²Łâ²Ĺâ²ī": 7548,
      "Ġbeaten": 7549,
      "Ġtroop": 7550,
      "ĠMagnificent": 7551,
      "Ġilluminates": 7552,
      "Ġplague": 7553,
      "Ġâ²Ļâ²ģÏ£Ï«": 7554,
      "ĠJeremias": 7555,
      "Att": 7556,
      "Back": 7557,
      "Did": 7558,
      "Nemti": 7559,
      "skr": 7560,
      "Ġâ²īâ²ĥâ²ĵ": 7561,
      "Ġêŀ½wty": 7562,
      "onze": 7563,
      "Ġrather": 7564,
      "Ġâ²¥â²¡â²īâ²£": 7565,
      "Ġegg": 7566,
      "already": 7567,
      "Ġstart": 7568,
      "ĠPl": 7569,
      "ĠÏŃâ²Ľ": 7570,
      "Ġwashed": 7571,
      "êŀ½mêŀ½": 7572,
      "Ġvice": 7573,
      "â²ĩâ²±": 7574,
      "Ġfloor": 7575,
      "êŀ½bd": 7576,
      "Ġprovince": 7577,
      "Ġêŀ½êľ£m": 7578,
      "Ġcarpent": 7579,
      "Ġsrq": 7580,
      "Ġpresiding": 7581,
      "Ġâ²¥â²Łâ²©â²Ł": 7582,
      "Ġdivided": 7583,
      "Ġdistance": 7584,
      "Ġ(??)": 7585,
      "Ġfighting": 7586,
      "Ġcaptain": 7587,
      "Ġgrief": 7588,
      "Ġdescended": 7589,
      "Ġá¸«ftêŀ½": 7590,
      "Ġâ²īÏ£Ï«â²ī": 7591,
      "Ġarrived": 7592,
      "Ġâ²īâ²¡â²ĵâ²ĳâ²©â²Ļ": 7593,
      "Ġcoffin": 7594,
      "Ġâ²¥â²¡â²īâ²£â²Ļâ²ģ": 7595,
      "IN": 7596,
      "joy": 7597,
      "mwt": 7598,
      "â²īâ²ķ": 7599,
      "oted": 7600,
      "Ġâ²ĵâ²īâ²£â²ī": 7601,
      "Ġspit": 7602,
      "ĠOsiri": 7603,
      "Ġ(?)!": 7604,
      "Ġwrá¸ı": 7605,
      "asted": 7606,
      "â²ĵâ²ģâ²Ļ": 7607,
      "Ġâ²¥â²ģâ²Ļâ²Łâ²©â²ıâ²Ĺ": 7608,
      "swrêŀ½": 7609,
      "Ġunharmed": 7610,
      "ĠÏ©â²ıâ²¡": 7611,
      "Ġincome": 7612,
      "Ï©â²īÏ«": 7613,
      "yris": 7614,
      "Ġprocession": 7615,
      "Ġfamine": 7616,
      "Ġinterior": 7617,
      "Ġâ²¥â²«â²£â²ģâ²ħ": 7618,
      "ĠÏ£â²ģâ²Ľâ²§â²ī": 7619,
      "Ġâ²īâ²£Ï©â²±â²ĥ": 7620,
      "////////": 7621,
      "cing": 7622,
      "live": 7623,
      "Ġoften": 7624,
      "á¸¥tm": 7625,
      "Ġfixed": 7626,
      "â²Ļâ²ģâ²§": 7627,
      "Ġâ²Łâ²©â²ĵâ²Ľâ²ģâ²Ļ": 7628,
      "Ġgn": 7629,
      "ĠÏ£Ï£â²ıâ²Ľ": 7630,
      "Ġremn": 7631,
      "Ġsaber": 7632,
      "Ġswêľ¥b": 7633,
      "Ġchoice": 7634,
      "Ġêŀ½ná¸¥": 7635,
      "â²ģâ²©Ï«": 7636,
      "Ġâ²ħâ²ģâ²Ĺ": 7637,
      "Ġâ²ħâ²īâ²Ľâ²ī": 7638,
      "â²Ńâ²ģâ²ĵ": 7639,
      "iph": 7640,
      "ĠUdj": 7641,
      "Ġdrag": 7642,
      "byn": 7643,
      "Ġdisg": 7644,
      "Ġâ²ķâ²īâ²Ĺâ²ī": 7645,
      "â²ģâ²¡â²§": 7646,
      "Ġâ²īâ²Ļâ²ģÏ£â²Ł": 7647,
      "ĠSebek": 7648,
      "Ġpurification": 7649,
      "Ġproduct": 7650,
      "Ġbegotten": 7651,
      "Ġcontinually": 7652,
      "Ġâ²¥Ï§â²ģâ²ĵ": 7653,
      "ĠTeudj": 7654,
      "Ġphysical": 7655,
      "Ġfuneral": 7656,
      "ĠÃ¦ons": 7657,
      "Ġcalamity": 7658,
      "Ġweapons": 7659,
      "ĠTeudjoi": 7660,
      "Fl": 7661,
      "aan": 7662,
      "sá¸ı": 7663,
      "Ġâ²īâ²«": 7664,
      "Ġhated": 7665,
      "Ġrisen": 7666,
      "Ġthrew": 7667,
      "Ġâ²§â²ģâ²Ľ": 7668,
      "Ġissued": 7669,
      "Ġâ²ķâ²Łâ²Łâ²©â²ī": 7670,
      "ntw": 7671,
      "ĠAspelta": 7672,
      "ĠEN": 7673,
      "ĠÏ£â²±â²Ĺ": 7674,
      "Ġá¸¥mi": 7675,
      "â²±â²Ľâ²ĵ": 7676,
      "ĠBeloved": 7677,
      "Ġsmá¸¥": 7678,
      "Ġâ²ħâ²īâ²Ľâ²Łâ²¥": 7679,
      "ĠThy": 7680,
      "ĠRitual": 7681,
      "Ġreject": 7682,
      "Ġrecom": 7683,
      "dead": 7684,
      "Ï©â²§â²ı": 7685,
      "Ġâ²¥â²Łâ²«â²Łâ²¥": 7686,
      "Ġâ²£Ï©â²±â²ĥ": 7687,
      "Ġâ²Ļâ²Ľâ²§â²£â²Ļ": 7688,
      "Ġhurt": 7689,
      "Ġinjustice": 7690,
      "nisut": 7691,
      "Ġawaken": 7692,
      "Ġtranslate": 7693,
      "Ġâ²§â²īâ²ĥâ²Ľâ²±â²Łâ²©â²ĵ": 7694,
      "Ġgirl": 7695,
      "â²ķâ²Ĺâ²ıâ²£â²Łâ²Ľâ²Łâ²Ļâ²ĵâ²Ľ": 7696,
      "Ġâ²ĵâ²īâ²£â²īâ²Ļâ²ĵâ²ģâ²¥": 7697,
      "fêľ£i": 7698,
      "kind": 7699,
      "Ġtitle": 7700,
      "Ġsqr": 7701,
      "Ġmf": 7702,
      "â²£â²ģÏ©": 7703,
      "Ġdies": 7704,
      "Ġfors": 7705,
      "Ġreed": 7706,
      "â²Łâ²Ĺâ²Łâ²Łâ²©â²ī": 7707,
      "Ġpron": 7708,
      "ĠSep": 7709,
      "Ġswear": 7710,
      "Ġâ²ģâ²Ľâ²ģâ²ħ": 7711,
      "Ġâ²§â²ģâ²īâ²ĵ": 7712,
      "Ġá¹¯si": 7713,
      "Ġvictory": 7714,
      "Ġorn": 7715,
      "keep": 7716,
      "Ġâ²¥â²ģÏ£Ï¥": 7717,
      "Ġâ²Ĺâ²ĵ": 7718,
      "á¸¥êľ£ty": 7719,
      "â²Łâ²£â²§â²īâ²£": 7720,
      "â²Ļâ²īâ²§": 7721,
      "ĠÏ©â²±â²¡": 7722,
      "Ġjustification": 7723,
      "Ġscattered": 7724,
      "Incense": 7725,
      "Ġtribes": 7726,
      "Ġprayed": 7727,
      "Ġstrike": 7728,
      "Ġchariots": 7729,
      "Ï©â²ıâ²¡â²¡â²ī": 7730,
      "Ġsurrounds": 7731,
      "Ġinvocation": 7732,
      "Ġbusiness": 7733,
      "Ġâ²ĳâ²Ĺâ²ĵâ²¯â²ĵâ²¥": 7734,
      "Ġversa": 7735,
      "30": 7736,
      "Bec": 7737,
      "Our": 7738,
      "mosis": 7739,
      "wpi": 7740,
      "ÃŁ": 7741,
      "â²§â²Łâ²Łâ²©": 7742,
      "Ġêŀ½á¹¯êľ£": 7743,
      "enance": 7744,
      "Ġlady": 7745,
      "Ġeight": 7746,
      "Ġâ²Ļâ²Ļâ²ĵâ²Ľ": 7747,
      "ĠMendes": 7748,
      "Ġsong": 7749,
      "Ġspec": 7750,
      "ĠÏ©â²ĵâ²ıâ²ĥ": 7751,
      "ĠTja": 7752,
      "nsc": 7753,
      "ung": 7754,
      "Ġcho": 7755,
      "Ġâ²īÏ©â²£â²ģ": 7756,
      "Ġâ²Ļâ²ģâ²īâ²ĵâ²Ľ": 7757,
      "Ġâ²Ļâ²īâ²£â²Łâ²¥": 7758,
      "Ġâ²Ľâ²§â²±": 7759,
      "Ġliver": 7760,
      "ĠChui": 7761,
      "Ġperformed": 7762,
      "ĠRet": 7763,
      "nêŀ½swt": 7764,
      "Ġâ²Ļâ²Ľâ²§â²¥â²Ľâ²Łâ²Łâ²©â²¥": 7765,
      "ĠQe": 7766,
      "Ġâ²£â²ĵâ²Ļâ²ĵ": 7767,
      "Ġâ²§â²±Ï£": 7768,
      "Ġafflicted": 7769,
      "ccess": 7770,
      "ĠImuthes": 7771,
      "ĠÏ£â²ĻÏ£â²ī": 7772,
      "Ġjoin": 7773,
      "â²Ļâ²īâ²Ľâ²ı": 7774,
      "ĠÏ©â²ĵâ²Łâ²Ļâ²ĵ": 7775,
      "Other": 7776,
      "lasting": 7777,
      "ron": 7778,
      "â²ĵâ²£": 7779,
      "Ġâ²¡â²ıâ²§": 7780,
      "ony": 7781,
      "onpolis": 7782,
      "Ġcent": 7783,
      "Ġcedar": 7784,
      "Ġinform": 7785,
      "êŀ½rp": 7786,
      "Ġâ²§â²īâ²Ĺâ²ıâ²Ĺ": 7787,
      "Ġprice": 7788,
      "together": 7789,
      "Ġworsh": 7790,
      "Ġkêľ£p": 7791,
      "bearer": 7792,
      "Ġafterwards": 7793,
      "Ġjustice": 7794,
      "Ġeating": 7795,
      "â²ĵâ²ķâ²Łâ²Ľ": 7796,
      "Ġapart": 7797,
      "Ġassign": 7798,
      "Ġescaped": 7799,
      "Ġâ²¡â²ģÏ©â²§": 7800,
      "Ġsummer": 7801,
      "ĠEmmer": 7802,
      "figuration": 7803,
      "Ġâ²¡â²£â²Łâ²ĥâ²Łâ²Ĺâ²Łâ²Łâ²©â²ī": 7804,
      "Ġâ²Ĺâ²īâ²©â²ĵâ²§â²ıâ²¥": 7805,
      "Ġembalming": 7806,
      "ĠNofretete": 7807,
      "Ġornament": 7808,
      "cons": 7809,
      "mÊ¾w": 7810,
      "nr": 7811,
      "Ġtor": 7812,
      "Ġwing": 7813,
      "Ġnáºĸnm": 7814,
      "Ġpor": 7815,
      "Ġhol": 7816,
      "ĠrÅ¡": 7817,
      "Ġthres": 7818,
      "Ġá¸¥sêľ£": 7819,
      "ĠÏ©â²Łâ²Ĺ": 7820,
      "ĠÏ©â²ŁÏ¥": 7821,
      "arr": 7822,
      "gans": 7823,
      "Ġ...\"": 7824,
      "Ġá¸«nm": 7825,
      "ĠMech": 7826,
      "ĠÏŃâ²Łâ²Ĺ": 7827,
      "ĠÏŃâ²Łâ²Ľâ²¥": 7828,
      "eff": 7829,
      "â²ģÏ©â²Łâ²©": 7830,
      "â²Łâ²īâ²ĵâ²§": 7831,
      "Ġâ²ģâ²Ľâ²ģ": 7832,
      "ĠJob": 7833,
      "Ġconifer": 7834,
      "Ġbreads": 7835,
      "Ġsisters": 7836,
      "Ġâ²¥â²ķâ²ıâ²Ľâ²ı": 7837,
      "ĠNebet": 7838,
      "Ï£â²ıâ²£â²ī": 7839,
      "Ġâ²¥Ï§â²ıâ²Łâ²©â²§": 7840,
      "ĠÏŃâ²ģâ²Ĺâ²ģâ²©Ï«": 7841,
      "ĠLesonis": 7842,
      "optos": 7843,
      "ierakonpolis": 7844,
      "Het": 7845,
      "Ġastr": 7846,
      "Ġsg": 7847,
      "Ġdnêŀ½": 7848,
      "Ġlangu": 7849,
      "â²Łâ²¥â²ģâ²Ĺâ²ıâ²Ļ": 7850,
      "ĠÅ¡dy": 7851,
      "sná¹¯r": 7852,
      "ĠMighty": 7853,
      "Ġáºĸl": 7854,
      "ĠRech": 7855,
      "ĠÏ©â²īâ²ĥ": 7856,
      "autiful": 7857,
      "Ġevils": 7858,
      "Ġpaid": 7859,
      "Ġâ²§â²Łâ²©Ï«â²Ł": 7860,
      "Ġâ²ģâ²¡â²Łâ²§": 7861,
      "â²Ĺâ²īâ²ģ": 7862,
      "Ġchambers": 7863,
      "Ġtenth": 7864,
      "Ġâ²ķâ²ģâ²Ĺâ²±â²¥": 7865,
      "ĠÏŃâ²ģÏ§â²īâ²Ļ": 7866,
      "Ġâ²§â²¥â²ģâ²ĥâ²Ł": 7867,
      "List": 7868,
      "bÃ¤ck": 7869,
      "sol": 7870,
      "Ġsnw": 7871,
      "â²ģâ²Ļâ²ģ": 7872,
      "Ġnk": 7873,
      "Ġnamed": 7874,
      "Ġcere": 7875,
      "Ġge": 7876,
      "ĠÏ©â²Łâ²©": 7877,
      "Ġbeard": 7878,
      "ĠGeneral": 7879,
      "Ġrelease": 7880,
      "ĠHu": 7881,
      "ĠNetjer": 7882,
      "Ġâ²īâ²£â²ķâ²Ĺâ²ıâ²£â²Łâ²Ľâ²Łâ²Ļâ²ĵâ²Ľ": 7883,
      "ĠÏ¯â²Łâ²©": 7884,
      "Ï¯â²Ľâ²Łâ²©": 7885,
      "Ġgoats": 7886,
      "Ġgreatness": 7887,
      "Ġaton": 7888,
      "Ġá¹¯nw": 7889,
      "Ġsmná¸«": 7890,
      "Ï¥â²īâ²£": 7891,
      "â²īâ²Ļâ²±â²Ľ": 7892,
      "ĠPhar": 7893,
      "Ġimm": 7894,
      "Ġâ²¯â²©â²Ń": 7895,
      "Ġscorp": 7896,
      "Ġâ²Ľâ²Ļâ²Ļâ²ı": 7897,
      "Ġdrives": 7898,
      "Ġoppress": 7899,
      "Ġcompanions": 7900,
      "ĠGoldhorus": 7901,
      "Ġwidth": 7902,
      "Ġconsumed": 7903,
      "Ġá¹¯rp": 7904,
      "Ġeliminate": 7905,
      "Ġprecious": 7906,
      "ĠAssyri": 7907,
      "komore": 7908,
      "\":": 7909,
      "Blessed": 7910,
      "Government": 7911,
      "ba": 7912,
      "kis": 7913,
      "â²īâ²Łâ²Łâ²©": 7914,
      "ĠsÅ¡d": 7915,
      "Ġmá¸¥w": 7916,
      "Ġbond": 7917,
      "Ġcust": 7918,
      "á¹¯w": 7919,
      "Ġ...(?)": 7920,
      "utes": 7921,
      "Ġá¸«mt": 7922,
      "áºĸry": 7923,
      "Ġâ²ĵâ²±â²ĥ": 7924,
      "Ġrebell": 7925,
      "ĠOF": 7926,
      "ĠTre": 7927,
      "â²Łâ²Ļâ²¥": 7928,
      "ĠWhy": 7929,
      "Ġ-,": 7930,
      "Ġâ²Ĺâ²©": 7931,
      "Ġstrange": 7932,
      "Ġlooks": 7933,
      "ĠÏŃâ²±â²Ĺ": 7934,
      "Ġpersons": 7935,
      "ainted": 7936,
      "Ġfavorite": 7937,
      "Ġforgive": 7938,
      "Ġtrusted": 7939,
      "Ġrevive": 7940,
      "Ġwá¸«d": 7941,
      "Ġâ²īâ²£â²«â²īâ²ĵ": 7942,
      "Ġmumm": 7943,
      "Ġâ²ħâ²īâ²Ľâ²īâ²ģ": 7944,
      "Ġsêľ¥êľ£": 7945,
      "Ġsigns": 7946,
      "Ġnmá¸¥": 7947,
      "Ġmain": 7948,
      "erc": 7949,
      "Ġhome": 7950,
      "Ġric": 7951,
      "ening": 7952,
      "Ġdarling": 7953,
      "---": 7954,
      "â²ĥâ²ıâ²Łâ²©â²§": 7955,
      "ĠGive": 7956,
      "estive": 7957,
      "ĠPay": 7958,
      "Ġâ²ĩâ²ĵ": 7959,
      "rwá¸«": 7960,
      "ĠTan": 7961,
      "Ġqêľ£w": 7962,
      "ĠÏ£â²ģâ²§â²ī": 7963,
      "Ġbund": 7964,
      "Ġdecor": 7965,
      "Ġâ²ģâ²§Ï£â²ģÏ«â²ī": 7966,
      "Ġproceed": 7967,
      "Ġâ²¥â²¡â²Łâ²§â²Łâ²©": 7968,
      "ĠBenj": 7969,
      "Ġâ²ĵâ²īâ²£â²Łâ²¥â²ģâ²Ĺâ²ıâ²Ļ": 7970,
      "Drink": 7971,
      "Ġremnant": 7972,
      "Ġrecompen": 7973,
      "Gr": 7974,
      "Water": 7975,
      "wá¸¥êľ¥": 7976,
      "wpw": 7977,
      "Ġnq": 7978,
      "Ġá¸¥pt": 7979,
      "utmosis": 7980,
      "stone": 7981,
      "ĠHat": 7982,
      "iven": 7983,
      "ĠÏŃâ²ıâ²¡â²ĵ": 7984,
      "oundation": 7985,
      "Ġloving": 7986,
      "Ġwêľ£Å¡": 7987,
      "ahar": 7988,
      "Ġ....\"": 7989,
      "new": 7990,
      "ĠÏ©â²ıâ²ħ": 7991,
      "Ġáºĸni": 7992,
      "ighth": 7993,
      "Ġincl": 7994,
      "Ġ60": 7995,
      "Ġwalked": 7996,
      "Ġâ²£â²±â²ķÏ©": 7997,
      "otted": 7998,
      "Ġâ²ĵâ²±â²ģâ²Ľâ²Ľâ²ıâ²¥": 7999,
      "Ġvalue": 8000,
      "ĠÏŃâ²ĵâ²ĽÏ«â²Łâ²Ľâ²¥": 8001,
      "ĠÏ£â²ĥâ²ıâ²£": 8002,
      "chnaton": 8003,
      "Ġâ²ıâ²¥â²ģâ²©": 8004,
      "before": 8005,
      "det": 8006,
      "mk": 8007,
      "pes": 8008,
      "inth": 8009,
      "â²ĵÏ£": 8010,
      "â²±â²Ĺ": 8011,
      "Ġrope": 8012,
      "â²Ļâ²Ļâ²Ł": 8013,
      "Ġdish": 8014,
      "Ġá¸¥wêľ£": 8015,
      "Ġâ²¥â²īâ²Ľ": 8016,
      "Ġâ²«â²ģÏ©â²Łâ²©": 8017,
      "antation": 8018,
      "Ġgrapes": 8019,
      "Ġâ²ĳâ²Łâ²©": 8020,
      "ĠWords": 8021,
      "Ġá¸«êľ£i": 8022,
      "Ġflowers": 8023,
      "Beginning": 8024,
      "Ġblame": 8025,
      "quo": 8026,
      "Ġcommit": 8027,
      "mrr": 8028,
      "â²Ńâ²ıâ²Ļâ²ĵ": 8029,
      "Ġstrangers": 8030,
      "Ġêľ¥Å¡êľ£y": 8031,
      "Ġreceives": 8032,
      "ĠThotoes": 8033,
      "Ġâ²§â²Łâ²©â²ĥâ²ıâ²Łâ²©â²§": 8034,
      "Ġâ²ģâ²Ļâ²Ľâ²§â²ī": 8035,
      "Ġêŀ½êľ£bá¹±": 8036,
      "ĠQaa": 8037,
      "Ġfavour": 8038,
      "Ġburden": 8039,
      "â²¥â²ģÏ©â²Ľâ²ī": 8040,
      "Ġdirector": 8041,
      "Ġwidow": 8042,
      "Ġâ²ķâ²ģâ²£â²¡â²Łâ²¥": 8043,
      "Apis": 8044,
      "ĠSyria": 8045,
      "Barley": 8046,
      "ĠÏ§â²Łâ²ĳâ²ĥ": 8047,
      "Add": 8048,
      "Com": 8049,
      "Deliver": 8050,
      "eed": 8051,
      "qet": 8052,
      "ĠYe": 8053,
      "Ġ----------------------------------------------------------------------------------------------------------------------------------------------------------------------------------------------------------------------------------------------------------------": 8054,
      "â²īâ²¡â²ĵâ²¥â²ķâ²Łâ²¡â²Łâ²¥": 8055,
      "Ġmark": 8056,
      "á¸¥z": 8057,
      "Ġbonds": 8058,
      "Ġâ²Ļâ²Łâ²£": 8059,
      "Ġâ²ģâ²«": 8060,
      "see": 8061,
      "Ġeas": 8062,
      "â²¡â²Ĺ": 8063,
      "Ġnbêŀ½": 8064,
      "Ġâ²£â²±â²Łâ²©": 8065,
      "ĠÏŃâ²£": 8066,
      "Ġâ²«â²Łâ²£": 8067,
      "ĠOr": 8068,
      "Ġsearch": 8069,
      "Ġâ²§â²ģâ²£â²ī": 8070,
      "Ġdeal": 8071,
      "achyt": 8072,
      "Ġblow": 8073,
      "Ġthence": 8074,
      "Ġprevail": 8075,
      "Ġcarries": 8076,
      "flow": 8077,
      "Ġâ²¥â²§â²©â²Ĺ": 8078,
      "Ġâ²ģâ²¥â²¥": 8079,
      "ĠNubier": 8080,
      "Ġstruck": 8081,
      "Ġastray": 8082,
      "Further": 8083,
      "Kakai": 8084,
      "Month": 8085,
      "Well": 8086,
      "pers": 8087,
      "rates": 8088,
      "incense": 8089,
      "Ġfurther": 8090,
      "Ï©â²īâ²Ļ": 8091,
      "leop": 8092,
      "Ġá¸«sb": 8093,
      "Ġprr": 8094,
      "ĠHeben": 8095,
      "ntef": 8096,
      "Ġzá¸¥": 8097,
      "Ġâ²īâ²£â²Ľâ²Łâ²ĥâ²ĵ": 8098,
      "ĠEchnaton": 8099,
      "ĠCome": 8100,
      "Ġenv": 8101,
      "Ġmá¸¥n": 8102,
      "Ġâ²¥â²±â²ķ": 8103,
      "Ġêŀ½á¸«m": 8104,
      "Ġentering": 8105,
      "Ġâ²Ļâ²Ľâ²§â²£â²ī": 8106,
      "health": 8107,
      "ĠÏŃâ²±Ï§â²īâ²Ļ": 8108,
      "â²ģâ²ĳâ²ģâ²Ľ": 8109,
      "Ġhelper": 8110,
      "Ġremained": 8111,
      "Ġaddition": 8112,
      "ĠHarsiesis": 8113,
      "effable": 8114,
      "ĠBenjamin": 8115,
      "quoise": 8116,
      "Pe": 8117,
      "zêľ£w": 8118,
      "Ġpen": 8119,
      "Ġhot": 8120,
      "iti": 8121,
      "Ġâ²§â²Łâ²§â²ī": 8122,
      "Ġheav": 8123,
      "Ġâ²ķâ²ģâ²ĵ": 8124,
      "ads": 8125,
      "Ġá¸¥rw": 8126,
      "Ġâ²Ľâ²īÏ«": 8127,
      "ĠGobl": 8128,
      "ĠÅ¡nn": 8129,
      "ĠÏ¯Ï©": 8130,
      "Ġpriv": 8131,
      "ĠÏ©â²Ľâ²ģ": 8132,
      "Ġâ²§â²ģâ²Ĺâ²ī": 8133,
      "Ġâ²īâ²ĵâ²§â²ī": 8134,
      "Ġâ²īâ²§â²īâ²§â²Ľ": 8135,
      "Ġdism": 8136,
      "Ġcreation": 8137,
      "minis": 8138,
      "etich": 8139,
      "ibis": 8140,
      "ĠÅ¡pss": 8141,
      "má¸ıá¸¥": 8142,
      "------------------------------------------------------------------------------------------------------------------------------------------------------------------------------------------------": 8143,
      "Ġaltars": 8144,
      "ĠSykomore": 8145,
      "ĠDuat": 8146,
      "ĠTeos": 8147,
      "spring": 8148,
      "Ġtype": 8149,
      "ealous": 8150,
      "Ġâ²īâ²Ŀâ²Łâ²©â²¥â²ĵâ²ģ": 8151,
      "ĠGoblin": 8152,
      "\"!": 8153,
      "ná¸ım": 8154,
      "â²īâ²ĥâ²ıâ²¥": 8155,
      "isions": 8156,
      "Ġpêľ¥": 8157,
      "Ġpat": 8158,
      "Ġbtêľ£": 8159,
      "atra": 8160,
      "ĠÏ©â²ıâ²Ĺ": 8161,
      "arrow": 8162,
      "aning": 8163,
      "Ġbegin": 8164,
      "rium": 8165,
      "heru": 8166,
      "Ġspake": 8167,
      "ĠKen": 8168,
      "Ġlock": 8169,
      "â²ĵâ²Ľâ²Łâ²Ľ": 8170,
      "Ġsilence": 8171,
      "Ġacting": 8172,
      "Ġguards": 8173,
      "ĠPetosiris": 8174,
      "Ġá¸«ntêŀ½": 8175,
      "Ġcaregiver": 8176,
      "Ġdwelling": 8177,
      "Ġâ²Ļâ²īÏ©â²¥": 8178,
      "ĠAmenhotep": 8179,
      "â²ģâ²£â²ĵâ²įâ²ī": 8180,
      "Ġâ²§â²ģÏ«â²£": 8181,
      "Ġvalet": 8182,
      "Ġrepeat": 8183,
      "Remember": 8184,
      "Ġswallowed": 8185,
      "Ġfifty": 8186,
      "bbbbbbbb": 8187,
      "Â·Â·Â·Â·Â·Â·Â·Â·": 8188,
      "Ġâ²Łâ²©â²īÏ©â²¥â²ģÏ©â²Ľâ²ī": 8189,
      "ĠTybi": 8190,
      "Dom": 8191,
      "Ptolemy": 8192,
      "kk": 8193,
      "sms": 8194,
      "wat": 8195,
      "wêľ¥w": 8196,
      "Ġbs": 8197,
      "Ġrow": 8198,
      "Ġá¸¥q": 8199,
      "Ġâ²ģÏ©â²Ł": 8200,
      "ĠÏ£â²Ľ": 8201,
      "ĠÏ£â²¡": 8202,
      "ĠIpi": 8203,
      "Ġâ²ĵâ²ŁÏ©â²ĵ": 8204,
      "ĠPar": 8205,
      "ĠGoddess": 8206,
      "ĠÏ¯â²Łâ²©â²±": 8207,
      "Ġbronze": 8208,
      "â²ıâ²¥â²ĵâ²¥": 8209,
      "Ġâ²Ńâ²ģâ²ķâ²ĵ": 8210,
      "Ġâ²Ńâ²ıâ²£â²ģ": 8211,
      "Ġsmt": 8212,
      "ĠDo": 8213,
      "Ġâ²Ļâ²ģâ²¥â²ī": 8214,
      "Ġsnakes": 8215,
      "ĠFay": 8216,
      "Ġshoulders": 8217,
      "ruren": 8218,
      "Ġêŀ½pêŀ½": 8219,
      "ample": 8220,
      "Ġdecree": 8221,
      "ĠIneffable": 8222,
      "Ġexposed": 8223,
      "Ġwishes": 8224,
      "ĠImhotep": 8225,
      "ekias": 8226,
      "Ġmonuments": 8227,
      "jjjjjjjj": 8228,
      "ĠÏ£â²ĳâ²Łâ²£â²§â²īâ²£": 8229,
      "ĠÏ©â²ŁÏ«Ï©â²īÏ«": 8230,
      "Ġdisgust": 8231,
      "App": 8232,
      "Neb": 8233,
      "car": 8234,
      "run": 8235,
      "inging": 8236,
      "anches": 8237,
      "Ġbetr": 8238,
      "á¹¯nn": 8239,
      "emet": 8240,
      "Ġêľ£Å¡r": 8241,
      "Ġseem": 8242,
      "aba": 8243,
      "ĠCaes": 8244,
      "ĠBu": 8245,
      "Ġâ²Ļâ²ģâ²ķâ²ģâ²£": 8246,
      "â²Ľâ²§â²Łâ²ķ": 8247,
      "â²£â²ģâ²¥": 8248,
      "Ġoffspring": 8249,
      "ĠChief": 8250,
      "ĠAbess": 8251,
      "Ġnhm": 8252,
      "Ġntk": 8253,
      "Ġcleanse": 8254,
      "ĠÏ©â²ĵâ²±â²ĵÏ£": 8255,
      "Perfect": 8256,
      "Ġâ²¡â²ģâ²£â²ģâ²ĥâ²Łâ²Ĺâ²ı": 8257,
      "iiiiiiii": 8258,
      "Ġmultiplied": 8259,
      "ĠSunlight": 8260,
      "position": 8261,
      "Gl": 8262,
      "NN": 8263,
      "eat": 8264,
      "willed": 8265,
      "Ġ:": 8266,
      "êŀ½êľ¥êľ£": 8267,
      "Ġsits": 8268,
      "Ġnêľ¥": 8269,
      "Ġmtêŀ½": 8270,
      "Ġrank": 8271,
      "Ġá¸¥á¸ıi": 8272,
      "Ġgêľ£b": 8273,
      "lear": 8274,
      "Ġresp": 8275,
      "ĠHarachte": 8276,
      "ĠÏ§â²±â²Ľâ²§": 8277,
      "ĠMere": 8278,
      "Ġswrêŀ½": 8279,
      "â²ģÏ©â²Łâ²Ļ": 8280,
      "ĠÏ£â²±â²Ľâ²ĵ": 8281,
      "â²ģâ²Ĺâ²ĵâ²Ľ": 8282,
      "Thy": 8283,
      "trong": 8284,
      "Ġflow": 8285,
      "Ġunjust": 8286,
      "â²¥â²ģâ²ĥâ²ī": 8287,
      "Ġcommander": 8288,
      "Ġbehalf": 8289,
      "â²Ľâ²§â²īâ²£": 8290,
      "Ġinstead": 8291,
      "qnqn": 8292,
      "Ġsurrounded": 8293,
      "Ġemerges": 8294,
      "êŀ½êľ£bá¹±": 8295,
      "Ġâ²ģâ²£â²Ńâ²ĵâ²īâ²£â²īâ²©â²¥": 8296,
      "Ġrefuge": 8297,
      "Ġassistant": 8298,
      "ĠMarres": 8299,
      "Ġatonement": 8300,
      "leopatra": 8301,
      "(-": 8302,
      "Sen": 8303,
      "iak": 8304,
      "wark": 8305,
      "Ġwand": 8306,
      "â²Ľâ²Łâ²Łâ²©â²ī": 8307,
      "â²±â²ĥâ²ī": 8308,
      "Ġran": 8309,
      "â²Ļâ²¡â²ī": 8310,
      "Ġâ²Łâ²©â²£â²±â²Łâ²©": 8311,
      "Ġcaught": 8312,
      "Ġâ²¥â²ĥ": 8313,
      "ĠÏ£â²Ĺ": 8314,
      "vere": 8315,
      "stream": 8316,
      "Ġsti": 8317,
      "Ġâ²Ľâ²Łâ²©Ï«": 8318,
      "â²Ľâ²īÏŃ": 8319,
      "â²Ľâ²īâ²©â²ī": 8320,
      "Ġá¹¯êľ£s": 8321,
      "Ġjum": 8322,
      "Ġvariant": 8323,
      "Ġsmoke": 8324,
      "Ï§â²ĵ": 8325,
      "Ġâ²Ļâ²īâ²Ĺ": 8326,
      "Ġâ²¥â²ģâ²§â²ī": 8327,
      "Ġexam": 8328,
      "ĠIsched": 8329,
      "â²±â²£Ï£": 8330,
      "plant": 8331,
      "plants": 8332,
      "pio": 8333,
      "â²įâ²ģâ²£": 8334,
      "Ġeverlasting": 8335,
      "Ġhealing": 8336,
      "Ġstandard": 8337,
      "Ġhappens": 8338,
      "ivers": 8339,
      "Ġkinds": 8340,
      "Ġntf": 8341,
      "Å¡pss": 8342,
      "ĠButo": 8343,
      "Ġdominion": 8344,
      "Ġthoughts": 8345,
      "ĠChoachyt": 8346,
      "Ġâ²ķâ²Łâ²Ĺâ²ģâ²¥â²ĵâ²¥": 8347,
      "Ġscroll": 8348,
      "Ġbulwark": 8349,
      "ĠChalde": 8350,
      "Ġjewelry": 8351,
      "Ġdetermin": 8352,
      "ĠQebeh": 8353,
      "Pete": 8354,
      "iah": 8355,
      "oom": 8356,
      "Ġmal": 8357,
      "Ġpare": 8358,
      "Ġhin": 8359,
      "Ġâ²¡â²±â²¥": 8360,
      "ĠÏ©â²ģâ²Ĺ": 8361,
      "ody": 8362,
      "Ġwhoever": 8363,
      "ĠSer": 8364,
      "ĠÏ£â²±â²§": 8365,
      "â²Łâ²īâ²ĵÏ£": 8366,
      "Ġá¸¥nmm": 8367,
      "Ġamaz": 8368,
      "Ġperpet": 8369,
      "ĠÅ¡mm": 8370,
      "â²ģâ²ĥâ²ģ": 8371,
      "Ġâ²¥â²±Ï¥": 8372,
      "ĠpsÅ¡": 8373,
      "ossistrum": 8374,
      "Ġleads": 8375,
      "ewaut": 8376,
      "Ġdwells": 8377,
      "Ġterr": 8378,
      "Ġmillion": 8379,
      "mmis": 8380,
      "Ġburned": 8381,
      "Ġvictims": 8382,
      "Ġminist": 8383,
      "YYYYYYYY": 8384,
      "Ġâ²ĩâ²ģâ²ĵâ²Ļâ²±â²Ľ": 8385,
      "Ġmusic": 8386,
      "Ġâ²¯â²©â²Ńâ²Łâ²Łâ²©â²ī": 8387,
      "aad": 8388,
      "dÅ¡r": 8389,
      "uff": 8390,
      "wdi": 8391,
      "hest": 8392,
      "Ġâ²īÏ¥": 8393,
      "Ġfate": 8394,
      "Ġâ²Ļâ²ıâ²§": 8395,
      "Ġcows": 8396,
      "Ġá¸¥nn": 8397,
      "omt": 8398,
      "Å¡sêľ£": 8399,
      "ĠÏ«â²Łâ²§": 8400,
      "Ġherd": 8401,
      "Ġarrow": 8402,
      "Ġâ²ħâ²ī": 8403,
      "ĠwnÅ¡": 8404,
      "Ġpersec": 8405,
      "Ġclaim": 8406,
      "ĠHead": 8407,
      "Ġprey": 8408,
      "â²¥â²±â²§â²īâ²Ļ": 8409,
      "___": 8410,
      "Ġbreasts": 8411,
      "Ġâ²ģâ²Ļâ²Łâ²©": 8412,
      "ibre": 8413,
      "Ġwalks": 8414,
      "Ġâ²§â²ĥâ²Ľâ²Łâ²Łâ²©â²ī": 8415,
      "Ġwitnesses": 8416,
      "Ġconduct": 8417,
      "Ġminister": 8418,
      "ĠÏ©â²Łâ²Ļâ²§": 8419,
      "################################": 8420,
      "::::::::::::::::::::::::::::::::": 8421,
      "Ġincrease": 8422,
      "amenoth": 8423,
      "Ġâ²Ļâ²ıâ²¡â²Łâ²§â²ī": 8424,
      "Ġâ²£â²īâ²Ļâ²Ľâ²Ńâ²ıâ²Ļâ²ĵ": 8425,
      "ĠNinety": 8426,
      "Son": 8427,
      "father": 8428,
      "gi": 8429,
      "teb": 8430,
      "ĠX": 8431,
      "Ġwoe": 8432,
      "Ġnkn": 8433,
      "Ġmáºĸn": 8434,
      "Ġthor": 8435,
      "Ġyield": 8436,
      "â²Łâ²©â²Ń": 8437,
      "Ġlions": 8438,
      "ĠIbis": 8439,
      "Ġkid": 8440,
      "ĠÅ¡Å¡êŀ½": 8441,
      "ĠNab": 8442,
      "â²Łâ²Ľâ²ı": 8443,
      "Rejoice": 8444,
      "Ġpride": 8445,
      "Ġbranches": 8446,
      "Ġâ²§â²ģâ²©â²ī": 8447,
      "Ġâ²§â²ģâ²Łâ²©â²Ł": 8448,
      "ĠKoptos": 8449,
      "Ġâ²Ļâ²īâ²Ĺâ²Łâ²¥": 8450,
      "â²«â²ģ": 8451,
      "ĠChu": 8452,
      "ĠThutmosis": 8453,
      "aham": 8454,
      "Ġunites": 8455,
      "vessel": 8456,
      "wêľ¥t": 8457,
      "Ġá¸«nti": 8458,
      "Ġmouths": 8459,
      "mrêŀ½": 8460,
      "nêŀ½s": 8461,
      "onsis": 8462,
      "Ġá¸«fti": 8463,
      "enix": 8464,
      "wá¸ıêľ¥": 8465,
      "ĠÏ§â²ģâ²ī": 8466,
      "Ġâ²¥â²ĵâ²Łâ²©": 8467,
      "ounced": 8468,
      "Stand": 8469,
      "Ġmêľ¥ná¸ı": 8470,
      "Ġsanctuaries": 8471,
      "Ġneighbours": 8472,
      "êŀ½zzêŀ½": 8473,
      "Ġswallow": 8474,
      "Worried": 8475,
      "ĠCountries": 8476,
      "Ġlazuli": 8477,
      "Ġjubilation": 8478,
      "First": 8479,
      "Never": 8480,
      "Sacrifice": 8481,
      "Wa": 8482,
      "fêľ¥": 8483,
      "mag": 8484,
      "saying": 8485,
      "â²īÏ¥â²ī": 8486,
      "Ġsqd": 8487,
      "iny": 8488,
      "â²Ľâ²ģâ²Ľâ²ī": 8489,
      "Ġhorus": 8490,
      "Ġêŀ½dw": 8491,
      "Ġêŀ½êľ¥i": 8492,
      "Ġpêľ£q": 8493,
      "áºĸm": 8494,
      "aketh": 8495,
      "ĠSelf": 8496,
      "reath": 8497,
      "ĠEli": 8498,
      "ĠÏ«â²±â²±â²Ļâ²ī": 8499,
      "Ġâ²Ĺâ²Łâ²ħ": 8500,
      "â²ģâ²¥â²Ļâ²ģ": 8501,
      "Ġmsk": 8502,
      "â²Ľâ²Łâ²©Ï«": 8503,
      "Ġâ²£â²īÏ¥â²Ļ": 8504,
      "Ġxvo": 8505,
      "ĠPrayer": 8506,
      "eezed": 8507,
      "Ġâ²§â²ģÏ©â²ī": 8508,
      "ankincense": 8509,
      "Ġdeserts": 8510,
      "Ġembal": 8511,
      "Ġphysic": 8512,
      "ĠSechem": 8513,
      "Ġâ²ĥâ²īâ²£â²ĵ": 8514,
      "â²ģâ²Ľâ²ģâ²ģâ²Ľ": 8515,
      "Ġtrembling": 8516,
      "Ġsupplication": 8517,
      "Ġbá¸¥d": 8518,
      "â²©â²£â²ĵâ²Łâ²¥": 8519,
      "Ġâ²¥â²ģâ²Ĺâ²¡â²ĵ": 8520,
      "Ġwonders": 8521,
      "Ġâ²ģâ²¥â²¥â²©â²£â²ĵâ²Łâ²¥": 8522,
      "Ġparents": 8523,
      "pan": 8524,
      "Ġtaste": 8525,
      "êŀ½êľ¥á¸¥": 8526,
      "Ġolive": 8527,
      "Ġmêŀ½w": 8528,
      "rection": 8529,
      "Ġpack": 8530,
      "Ġhry": 8531,
      "Ġâ²¡â²ı": 8532,
      "Ġdet": 8533,
      "Ġâ²¥â²Ł": 8534,
      "Ġâ²¥â²±â²Ľâ²§": 8535,
      "ĠHow": 8536,
      "ĠHierakonpolis": 8537,
      "Ġsabb": 8538,
      "used": 8539,
      "êŀ½rêŀ½": 8540,
      "ĠPis": 8541,
      "Ġzkr": 8542,
      "Ġseeds": 8543,
      "earing": 8544,
      "Ġâ²ĥâ²ģâ²ĵ": 8545,
      "Ġâ²¥â²īâ²Ļ": 8546,
      "Ġearn": 8547,
      "Ġdrawn": 8548,
      "â²Ļâ²ĵâ²ī": 8549,
      "ĠFire": 8550,
      "ĠFoundation": 8551,
      "Ġmaid": 8552,
      "Ġâ²¥â²Łâ²¡â²¥": 8553,
      "â²ĵâ²ģâ²¥â²§â²ıâ²£â²ĵâ²Łâ²Ľ": 8554,
      "ĠÏ©â²©â²Ļ": 8555,
      "ĠShemu": 8556,
      "Ġveil": 8557,
      "Ġimport": 8558,
      "Ġfirmly": 8559,
      "Ġrejuvenate": 8560,
      "Ġposition": 8561,
      "ĠGalaad": 8562,
      "Ġrká¸¥": 8563,
      "Ġnature": 8564,
      "corpio": 8565,
      "â²ĩâ²±â²Ĺâ²Łâ²Ľ": 8566,
      "ĠAssyrians": 8567,
      "Tell": 8568,
      "bishop": 8569,
      "jour": 8570,
      "mit": 8571,
      "pay": 8572,
      "tau": 8573,
      "what": 8574,
      "â²īâ²ķâ²ī": 8575,
      "á¸¥nw": 8576,
      "Ġpzá¸¥": 8577,
      "erchet": 8578,
      "enes": 8579,
      "Ġá¸¥f": 8580,
      "Ġá¸¥y": 8581,
      "edu": 8582,
      "Ġgain": 8583,
      "verse": 8584,
      "êŀ½rm": 8585,
      "opard": 8586,
      "ĠÏŃâ²±â²£â²¡": 8587,
      "Ġspirits": 8588,
      "Ġqy": 8589,
      "ĠCleopatra": 8590,
      "Ġâ²§â²ģâ²ķ": 8591,
      "Ġâ²ĳâ²ģÏ©": 8592,
      "Ġsojour": 8593,
      "Ġtrêŀ½": 8594,
      "Ġâ²Ĺâ²ī": 8595,
      "Behedeti": 8596,
      "mná¹¯": 8597,
      "Ï£â²ĵâ²¡â²ī": 8598,
      "Ġpsmá¹¯k": 8599,
      "peror": 8600,
      "Ġquiet": 8601,
      "Ġdestroys": 8602,
      "Ġâ²Ľâ²ŁÏŃâ²Ľâ²īÏŃ": 8603,
      "Ġâ²īâ²Ľâ²ķâ²Łâ²§": 8604,
      "Ġboast": 8605,
      "ĠChenti": 8606,
      "ĠNews": 8607,
      "Ġbelieved": 8608,
      "Ġâ²ĳâ²©â²¥â²ĵâ²ģâ²¥â²§â²ıâ²£â²ĵâ²Łâ²Ľ": 8609,
      "Ġsqueezed": 8610,
      "Ġâ²¥â²ĳâ²Łâ²ĵ": 8611,
      "ĠGrand": 8612,
      "â²ģâ²¥â²¥â²ı": 8613,
      "Ġstreets": 8614,
      "Ġobserve": 8615,
      "Moreover": 8616,
      "bÅ¡": 8617,
      "back": 8618,
      "jem": 8619,
      "qêľ£i": 8620,
      "uished": 8621,
      "Ġná¸¥êľ£": 8622,
      "Ġêŀ½Å¡": 8623,
      "Ġrtb": 8624,
      "Ġduck": 8625,
      "Ï©â²ģâ²Ļ": 8626,
      "â²Łâ²©â²Łâ²ĵ": 8627,
      "Ġâ²¥â²īâ²ĵ": 8628,
      "chief": 8629,
      "Ġá¸«mn": 8630,
      "Ġks": 8631,
      "ĠHitt": 8632,
      "Ġstne": 8633,
      "â²ģâ²Ľâ²Łâ²Ľ": 8634,
      "Ġbyn": 8635,
      "Ġmrêŀ½": 8636,
      "á¸¥êľ¥êľ¥": 8637,
      "ĠAmor": 8638,
      "Ġserved": 8639,
      "Ġperished": 8640,
      "Ġâ²Łâ²©â²±Ï©â²Ļ": 8641,
      "ĠPharm": 8642,
      "ĠPhamenoth": 8643,
      "Ġnecess": 8644,
      "Ġequal": 8645,
      "Ġadded": 8646,
      "Ġlabour": 8647,
      "Ġâ²īâ²£Ï£â²«": 8648,
      "Ġvegetables": 8649,
      "ĠSebekhotep": 8650,
      "Ġriches": 8651,
      "ĠChaldeans": 8652,
      "Ġsabbath": 8653,
      "Sec": 8654,
      "Some": 8655,
      "Un": 8656,
      "field": 8657,
      "sor": 8658,
      "tle": 8659,
      "Ġhunt": 8660,
      "â²§â²ĵâ²Ľ": 8661,
      "itate": 8662,
      "itable": 8663,
      "Ġâ²§â²ĵâ²Ļ": 8664,
      "Ġlapis": 8665,
      "leep": 8666,
      "ste": 8667,
      "Ġâ²«â²±â²Ľ": 8668,
      "Ġchanged": 8669,
      "Ġâ²ģâ²Ľâ²§â²ĵ": 8670,
      "ĠKosen": 8671,
      "Ġkne": 8672,
      "hoenix": 8673,
      "â²Łâ²ķâ²Ļâ²ī": 8674,
      "âĢĺ": 8675,
      "ĠRuler": 8676,
      "Ï£â²ĵÏ£": 8677,
      "Ġrepresent": 8678,
      "Ġsbq": 8679,
      "ĠVizier": 8680,
      "Ġná¸ıri": 8681,
      "Ġboard": 8682,
      "Ġnumbered": 8683,
      "Ġsupply": 8684,
      "Ġutterance": 8685,
      "Ġâ²ģâ²ħâ²ģâ²ĳâ²Łâ²¥": 8686,
      "Ġcrowd": 8687,
      "Ġvisit": 8688,
      "Ġthirsty": 8689,
      "ĠÏ§â²īâ²Ĺâ²Ĺ": 8690,
      "Ġedge": 8691,
      "Ġaccomplished": 8692,
      "Ġêŀ½ptn": 8693,
      "Ġjackal": 8694,
      "Ġâ²Ļâ²ģâ²ķâ²ģâ²£â²ĵâ²Łâ²¥": 8695,
      "omtus": 8696,
      "every": 8697,
      "faced": 8698,
      "no": 8699,
      "ping": 8700,
      "Ġsá¸ıd": 8701,
      "Ġmtn": 8702,
      "Ġbott": 8703,
      "â²£â²ģâ²Ľ": 8704,
      "Ġthi": 8705,
      "alom": 8706,
      "ĠSche": 8707,
      "Ġâ²«â²ıâ²Łâ²©â²ĵ": 8708,
      "Ġql": 8709,
      "â²Łâ²Ļâ²ģ": 8710,
      "Ġâ²Ńâ²ģâ²Ľâ²ģâ²ģâ²Ľ": 8711,
      "Ġdevil": 8712,
      "Ġorph": 8713,
      "achment": 8714,
      "iper": 8715,
      "ĠUraeus": 8716,
      "Ġtrum": 8717,
      "Ġrmi": 8718,
      "Ġneg": 8719,
      "Ġprovision": 8720,
      "Ġâ²Ļâ²īâ²§â²ģâ²§": 8721,
      "wá¸ıb": 8722,
      "Ġpfy": 8723,
      "Ġuncleanness": 8724,
      "Ġâ²ģâ²©Ï£â²ģâ²Ľ": 8725,
      "Ġgladness": 8726,
      "Ġforgotten": 8727,
      "Ġmiserable": 8728,
      "etymis": 8729,
      "Ġâ²¡â²ģâ²§â²ģâ²¥â²¥": 8730,
      "ĠAbraham": 8731,
      "ĠÏ©â²ıâ²ħâ²īâ²Ļâ²±â²Ľ": 8732,
      "Ġâ²¡â²ģâ²§â²ģâ²¥â²¥â²īâ²ĵ": 8733,
      ")?": 8734,
      "-(": 8735,
      "?âĢĿ": 8736,
      "Ar": 8737,
      "Ġ?)": 8738,
      "Ġpol": 8739,
      "Ġber": 8740,
      "á¸«y": 8741,
      "ĠÏ©â²±â²Ļ": 8742,
      "ĠÏ«â²ĵâ²¥": 8743,
      "áºĸkr": 8744,
      "ĠPower": 8745,
      "Ġâ²īâ²£â²¥": 8746,
      "Ġweary": 8747,
      "ourt": 8748,
      "Ġá¹¯bw": 8749,
      "ĠJoab": 8750,
      "Ġexh": 8751,
      "Ġêŀ½bá¸¥": 8752,
      "êŀ½bt": 8753,
      ".'\"": 8754,
      "Ġnwá¸¥": 8755,
      "Ġtribut": 8756,
      "denly": 8757,
      "Ġbreathing": 8758,
      "Ġoppon": 8759,
      "Ġadversaries": 8760,
      "â²ģâ²Ĺâ²ģâ²ģâ²ĩ": 8761,
      "Ġâ²ģâ²Ļâ²ģÏ©â²ĵ": 8762,
      "Permanent": 8763,
      "Ġmeasured": 8764,
      "Ġladder": 8765,
      "ĠWhite": 8766,
      "ĠLevites": 8767,
      "Ġâ²ĥâ²īâ²Ľâ²ĵâ²ģâ²Ļ": 8768,
      "Ġâ²ķâ²£â²ŁÏ¥": 8769,
      "Ġâ²Łâ²©â²Ľâ²§â²ģ": 8770,
      "Ġâ²ħâ²£â²ģâ²«â²ı": 8771,
      "Ġgeese": 8772,
      "ĠKosename": 8773,
      "Ġtrumpet": 8774,
      "ON": 8775,
      "apped": 8776,
      "dge": 8777,
      "divine": 8778,
      "fy": 8779,
      "fty": 8780,
      "jau": 8781,
      "Ġteti": 8782,
      "Ġft": 8783,
      "Ġâ²Ļâ²ıâ²Ľ": 8784,
      "Ġrá¸ı": 8785,
      "Ġdwn": 8786,
      "Ġbend": 8787,
      "rion": 8788,
      "Ġêľ¥bêľ£": 8789,
      "ural": 8790,
      "ĠTo": 8791,
      "Ġprime": 8792,
      "Ġâ²ĥâ²£â²£â²ī": 8793,
      "Ġá¹¯b": 8794,
      "â²ģâ²Ĺâ²±â²Ļ": 8795,
      "Ġworm": 8796,
      "Ġexerc": 8797,
      "Ġcler": 8798,
      "á¹¯nêŀ½": 8799,
      "Ġcares": 8800,
      "Ġâ²ģâ²Ļâ²ıâ²Ľ": 8801,
      "Ġraises": 8802,
      "Ġâ²¡â²±Ï©": 8803,
      "Ġmourn": 8804,
      "Ġâ²ģâ²ĩâ²ģâ²Ļ": 8805,
      "Ġpillars": 8806,
      "Ġverteb": 8807,
      "ĠScriptures": 8808,
      "ĠPharise": 8809,
      "15": 8810,
      "gÅ¡": 8811,
      "hip": 8812,
      "Ġtempt": 8813,
      "êľ£t": 8814,
      "insen": 8815,
      "â²Ľâ²īâ²ĵâ²ģ": 8816,
      "Ġpond": 8817,
[...]
